<pad>	0
<s>	0
</s>	0
<unk>	0
<0x00>	0
<0x01>	0
<0x02>	0
<0x03>	0
<0x04>	0
<0x05>	0
<0x06>	0
<0x07>	0
<0x08>	0
<0x09>	0
<0x0A>	0
<0x0B>	0
<0x0C>	0
<0x0D>	0
<0x0E>	0
<0x0F>	0
<0x10>	0
<0x11>	0
<0x12>	0
<0x13>	0
<0x14>	0
<0x15>	0
<0x16>	0
<0x17>	0
<0x18>	0
<0x19>	0
<0x1A>	0
<0x1B>	0
<0x1C>	0
<0x1D>	0
<0x1E>	0
<0x1F>	0
<0x20>	0
<0x21>	0
<0x22>	0
<0x23>	0
<0x24>	0
<0x25>	0
<0x26>	0
<0x27>	0
<0x28>	0
<0x29>	0
<0x2A>	0
<0x2B>	0
<0x2C>	0
<0x2D>	0
<0x2E>	0
<0x2F>	0
<0x30>	0
<0x31>	0
<0x32>	0
<0x33>	0
<0x34>	0
<0x35>	0
<0x36>	0
<0x37>	0
<0x38>	0
<0x39>	0
<0x3A>	0
<0x3B>	0
<0x3C>	0
<0x3D>	0
<0x3E>	0
<0x3F>	0
<0x40>	0
<0x41>	0
<0x42>	0
<0x43>	0
<0x44>	0
<0x45>	0
<0x46>	0
<0x47>	0
<0x48>	0
<0x49>	0
<0x4A>	0
<0x4B>	0
<0x4C>	0
<0x4D>	0
<0x4E>	0
<0x4F>	0
<0x50>	0
<0x51>	0
<0x52>	0
<0x53>	0
<0x54>	0
<0x55>	0
<0x56>	0
<0x57>	0
<0x58>	0
<0x59>	0
<0x5A>	0
<0x5B>	0
<0x5C>	0
<0x5D>	0
<0x5E>	0
<0x5F>	0
<0x60>	0
<0x61>	0
<0x62>	0
<0x63>	0
<0x64>	0
<0x65>	0
<0x66>	0
<0x67>	0
<0x68>	0
<0x69>	0
<0x6A>	0
<0x6B>	0
<0x6C>	0
<0x6D>	0
<0x6E>	0
<0x6F>	0
<0x70>	0
<0x71>	0
<0x72>	0
<0x73>	0
<0x74>	0
<0x75>	0
<0x76>	0
<0x77>	0
<0x78>	0
<0x79>	0
<0x7A>	0
<0x7B>	0
<0x7C>	0
<0x7D>	0
<0x7E>	0
<0x7F>	0
<0x80>	0
<0x81>	0
<0x82>	0
<0x83>	0
<0x84>	0
<0x85>	0
<0x86>	0
<0x87>	0
<0x88>	0
<0x89>	0
<0x8A>	0
<0x8B>	0
<0x8C>	0
<0x8D>	0
<0x8E>	0
<0x8F>	0
<0x90>	0
<0x91>	0
<0x92>	0
<0x93>	0
<0x94>	0
<0x95>	0
<0x96>	0
<0x97>	0
<0x98>	0
<0x99>	0
<0x9A>	0
<0x9B>	0
<0x9C>	0
<0x9D>	0
<0x9E>	0
<0x9F>	0
<0xA0>	0
<0xA1>	0
<0xA2>	0
<0xA3>	0
<0xA4>	0
<0xA5>	0
<0xA6>	0
<0xA7>	0
<0xA8>	0
<0xA9>	0
<0xAA>	0
<0xAB>	0
<0xAC>	0
<0xAD>	0
<0xAE>	0
<0xAF>	0
<0xB0>	0
<0xB1>	0
<0xB2>	0
<0xB3>	0
<0xB4>	0
<0xB5>	0
<0xB6>	0
<0xB7>	0
<0xB8>	0
<0xB9>	0
<0xBA>	0
<0xBB>	0
<0xBC>	0
<0xBD>	0
<0xBE>	0
<0xBF>	0
<0xC0>	0
<0xC1>	0
<0xC2>	0
<0xC3>	0
<0xC4>	0
<0xC5>	0
<0xC6>	0
<0xC7>	0
<0xC8>	0
<0xC9>	0
<0xCA>	0
<0xCB>	0
<0xCC>	0
<0xCD>	0
<0xCE>	0
<0xCF>	0
<0xD0>	0
<0xD1>	0
<0xD2>	0
<0xD3>	0
<0xD4>	0
<0xD5>	0
<0xD6>	0
<0xD7>	0
<0xD8>	0
<0xD9>	0
<0xDA>	0
<0xDB>	0
<0xDC>	0
<0xDD>	0
<0xDE>	0
<0xDF>	0
<0xE0>	0
<0xE1>	0
<0xE2>	0
<0xE3>	0
<0xE4>	0
<0xE5>	0
<0xE6>	0
<0xE7>	0
<0xE8>	0
<0xE9>	0
<0xEA>	0
<0xEB>	0
<0xEC>	0
<0xED>	0
<0xEE>	0
<0xEF>	0
<0xF0>	0
<0xF1>	0
<0xF2>	0
<0xF3>	0
<0xF4>	0
<0xF5>	0
<0xF6>	0
<0xF7>	0
<0xF8>	0
<0xF9>	0
<0xFA>	0
<0xFB>	0
<0xFC>	0
<0xFD>	0
<0xFE>	0
<0xFF>	0
▁t	-0
▁a	-1
in	-2
he	-3
re	-4
on	-5
er	-6
▁the	-7
▁s	-8
▁w	-9
or	-10
at	-11
nd	-12
ou	-13
▁c	-14
it	-15
es	-16
▁f	-17
is	-18
en	-19
ing	-20
▁b	-21
▁p	-22
▁o	-23
an	-24
ed	-25
al	-26
▁to	-27
▁m	-28
ar	-29
▁and	-30
▁in	-31
▁of	-32
▁d	-33
le	-34
ic	-35
as	-36
om	-37
▁h	-38
ion	-39
▁th	-40
il	-41
▁T	-42
ent	-43
▁l	-44
ve	-45
▁y	-46
ro	-47
st	-48
▁I	-49
▁e	-50
▁re	-51
▁n	-52
▁S	-53
▁g	-54
et	-55
ct	-56
▁A	-57
▁you	-58
▁C	-59
ly	-60
▁for	-61
id	-62
▁is	-63
ay	-64
▁on	-65
▁be	-66
ot	-67
ow	-68
ol	-69
am	-70
ac	-71
ig	-72
us	-73
el	-74
ad	-75
im	-76
▁M	-77
ver	-78
ith	-79
ut	-80
▁st	-81
ation	-82
ur	-83
▁P	-84
▁with	-85
▁that	-86
ir	-87
▁B	-88
▁W	-89
ch	-90
ce	-91
▁The	-92
▁it	-93
▁he	-94
ill	-95
ers	-96
▁al	-97
un	-98
ul	-99
▁an	-100
▁D	-101
▁H	-102
▁F	-103
ra	-104
out	-105
▁as	-106
▁pro	-107
▁wh	-108
ke	-109
▁are	-110
se	-111
ter	-112
▁we	-113
if	-114
oo	-115
ge	-116
▁ha	-117
our	-118
▁R	-119
pp	-120
ate	-121
ess	-122
▁at	-123
▁con	-124
▁com	-125
▁or	-126
▁L	-127
est	-128
her	-129
ore	-130
ment	-131
▁fr	-132
ab	-133
igh	-134
▁-	-135
▁ne	-136
▁N	-137
▁se	-138
ort	-139
▁G	-140
ld	-141
▁your	-142
▁E	-143
ist	-144
ri	-145
op	-146
▁(	-147
▁ex	-148
ity	-149
ure	-150
em	-151
▁O	-152
▁v	-153
qu	-154
ant	-155
art	-156
ive	-157
▁r	-158
ust	-159
▁was	-160
um	-161
▁have	-162
pe	-163
▁from	-164
▁this	-165
▁de	-166
oc	-167
▁sh	-168
th	-169
ain	-170
ies	-171
▁can	-172
up	-173
▁will	-174
▁ch	-175
and	-176
▁by	-177
os	-178
ight	-179
nt	-180
ie	-181
▁us	-182
ome	-183
all	-184
ard	-185
▁not	-186
ud	-187
res	-188
▁le	-189
▁J	-190
ast	-191
▁pl	-192
ost	-193
▁su	-194
▁ab	-195
iv	-196
ear	-197
▁wor	-198
ide	-199
ack	-200
ial	-201
rou	-202
▁all	-203
gh	-204
ell	-205
od	-206
ak	-207
te	-208
ine	-209
ould	-210
▁j	-211
ag	-212
red	-213
▁has	-214
..	-215
ice	-216
▁Th	-217
▁U	-218
age	-219
▁do	-220
▁k	-221
fe	-222
ook	-223
▁ad	-224
per	-225
▁In	-226
ip	-227
▁comp	-228
ake	-229
▁out	-230
ally	-231
ions	-232
▁up	-233
are	-234
▁but	-235
▁me	-236
▁whe	-237
pt	-238
ry	-239
▁our	-240
able	-241
▁“	-242
one	-243
ind	-244
og	-245
▁en	-246
▁more	-247
ail	-248
ite	-249
ther	-250
▁their	-251
▁Y	-252
ich	-253
ime	-254
very	-255
cc	-256
▁so	-257
▁cl	-258
ood	-259
ong	-260
ated	-261
▁K	-262
▁my	-263
▁sa	-264
for	-265
ame	-266
iz	-267
ber	-268
▁they	-269
▁St	-270
ace	-271
▁te	-272
▁one	-273
so	-274
ous	-275
ans	-276
act	-277
pl	-278
▁about	-279
ike	-280
du	-281
▁cont	-282
ase	-283
▁V	-284
▁im	-285
ick	-286
ia	-287
▁work	-288
▁inc	-289
ign	-290
ance	-291
▁un	-292
ire	-293
▁off	-294
ree	-295
▁who	-296
▁fe	-297
▁man	-298
ue	-299
ach	-300
▁tr	-301
reat	-302
ub	-303
▁It	-304
ll	-305
▁go	-306
ction	-307
ne	-308
▁new	-309
▁year	-310
▁app	-311
ult	-312
▁his	-313
ib	-314
ays	-315
▁"	-316
▁Ch	-317
erv	-318
▁We	-319
und	-320
▁res	-321
ap	-322
ass	-323
ark	-324
ep	-325
ff	-326
▁qu	-327
ations	-328
ary	-329
▁per	-330
▁also	-331
▁sp	-332
ile	-333
ove	-334
▁int	-335
▁which	-336
▁time	-337
ven	-338
form	-339
▁get	-340
ount	-341
own	-342
▁like	-343
▁some	-344
▁other	-345
ond	-346
ings	-347
ents	-348
vel	-349
▁any	-350
ical	-351
ence	-352
▁part	-353
av	-354
▁been	-355
▁dis	-356
▁This	-357
▁over	-358
ition	-359
ress	-360
ors	-361
▁rec	-362
▁them	-363
ck	-364
▁He	-365
▁ar	-366
▁sc	-367
ild	-368
▁pe	-369
ink	-370
port	-371
▁ag	-372
low	-373
▁ro	-374
▁her	-375
▁when	-376
ound	-377
ose	-378
▁kn	-379
mer	-380
int	-381
ord	-382
oy	-383
ish	-384
ob	-385
irst	-386
▁need	-387
▁said	-388
ens	-389
ough	-390
▁pr	-391
ov	-392
▁pre	-393
▁just	-394
ru	-395
▁spe	-396
wn	-397
▁acc	-398
▁what	-399
ren	-400
▁there	-401
▁if	-402
▁Re	-403
▁than	-404
▁its	-405
day	-406
vers	-407
▁would	-408
fter	-409
▁had	-410
ater	-411
ade	-412
ning	-413
lud	-414
▁were	-415
▁am	-416
lp	-417
▁–	-418
rough	-419
▁into	-420
old	-421
▁des	-422
ory	-423
ople	-424
itt	-425
ang	-426
▁tw	-427
▁how	-428
▁help	-429
use	-430
anc	-431
lic	-432
ool	-433
▁bec	-434
▁first	-435
▁add	-436
ks	-437
▁make	-438
▁comm	-439
amp	-440
ons	-441
...	-442
hed	-443
▁Wh	-444
▁prov	-445
▁look	-446
ft	-447
▁You	-448
▁people	-449
▁includ	-450
ual	-451
les	-452
▁bl	-453
▁serv	-454
gr	-455
ian	-456
▁col	-457
ments	-458
ful	-459
▁know	-460
▁produ	-461
iew	-462
ates	-463
▁Ne	-464
ious	-465
rent	-466
▁em	-467
tern	-468
▁she	-469
round	-470
▁every	-471
▁through	-472
▁may	-473
▁no	-474
ating	-475
▁only	-476
▁back	-477
pport	-478
▁most	-479
▁bu	-480
▁want	-481
ict	-482
ect	-483
▁As	-484
ices	-485
▁If	-486
▁well	-487
▁see	-488
we	-489
▁ph	-490
ities	-491
▁bet	-492
▁ind	-493
ise	-494
▁use	-495
▁two	-496
xt	-497
com	-498
ont	-499
▁act	-500
▁und	-501
iss	-502
iness	-503
lect	-504
▁after	-505
▁Se	-506
ause	-507
ife	-508
ph	-509
▁play	-510
fect	-511
▁|	-512
▁co	-513
oth	-514
▁&	-515
row	-516
ily	-517
enc	-518
ock	-519
▁exper	-520
ject	-521
▁cons	-522
hen	-523
urn	-524
▁fl	-525
▁years	-526
ert	-527
als	-528
▁tra	-529
▁these	-530
ting	-531
cial	-532
▁$	-533
aw	-534
▁Com	-535
▁An	-536
▁bus	-537
▁Un	-538
▁For	-539
▁stud	-540
ange	-541
▁good	-542
any	-543
bs	-544
vent	-545
ures	-546
aking	-547
ational	-548
ased	-549
▁ke	-550
ific	-551
▁now	-552
▁Pro	-553
▁under	-554
fore	-555
▁very	-556
▁many	-557
▁sm	-558
▁reg	-559
hing	-560
ward	-561
▁imp	-562
get	-563
oint	-564
▁way	-565
▁dif	-566
erson	-567
▁start	-568
ience	-569
ts	-570
pect	-571
▁wee	-572
▁fin	-573
▁De	-574
▁great	-575
▁And	-576
▁rel	-577
uring	-578
yst	-579
formation	-580
▁gu	-581
▁could	-582
ility	-583
▁rem	-584
ible	-585
▁dec	-586
oss	-587
uch	-588
▁even	-589
hip	-590
ty	-591
▁inv	-592
).	-593
ics	-594
▁loc	-595
rit	-596
ract	-597
▁sec	-598
▁day	-599
▁own	-600
cess	-601
velop	-602
▁where	-603
▁show	-604
ork	-605
ident	-606
elf	-607
alth	-608
hes	-609
its	-610
▁high	-611
▁find	-612
air	-613
ull	-614
nds	-615
▁don	-616
olog	-617
▁home	-618
▁ass	-619
▁should	-620
ath	-621
line	-622
▁here	-623
▁ent	-624
▁down	-625
▁best	-626
▁then	-627
lease	-628
▁Sh	-629
ble	-630
ied	-631
ular	-632
▁br	-633
▁Al	-634
▁right	-635
The	-636
arch	-637
chool	-638
||	-639
▁ac	-640
▁set	-641
ited	-642
▁car	-643
▁New	-644
▁read	-645
▁av	-646
▁mon	-647
▁min	-648
▁take	-649
gan	-650
erm	-651
▁business	-652
▁fam	-653
ix	-654
ner	-655
▁ins	-656
▁inst	-657
▁att	-658
▁design	-659
▁too	-660
ystem	-661
ys	-662
.”	-663
▁che	-664
▁much	-665
▁long	-666
io	-667
ative	-668
▁Be	-669
▁information	-670
▁Cl	-671
▁made	-672
▁last	-673
ollow	-674
ason	-675
other	-676
ues	-677
▁because	-678
omet	-679
arket	-680
gram	-681
▁product	-682
▁Fr	-683
ank	-684
ax	-685
),	-686
rib	-687
▁did	-688
▁call	-689
▁think	-690
▁before	-691
▁world	-692
▁team	-693
me	-694
atch	-695
▁cre	-696
ale	-697
oun	-698
▁again	-699
pen	-700
▁But	-701
▁sur	-702
pr	-703
▁vis	-704
ower	-705
ient	-706
az	-707
▁Ad	-708
▁art	-709
chn	-710
▁being	-711
way	-712
▁develop	-713
▁requ	-714
▁diffe	-715
ustom	-716
▁pres	-717
rest	-718
▁person	-719
▁Le	-720
ng	-721
ener	-722
▁such	-723
▁disc	-724
▁inte	-725
land	-726
▁mem	-727
▁him	-728
alk	-729
ug	-730
▁life	-731
arn	-732
▁support	-733
ving	-734
ouse	-735
unity	-736
ave	-737
ince	-738
▁does	-739
irect	-740
▁med	-741
▁Ar	-742
▁those	-743
▁while	-744
ins	-745
ash	-746
arm	-747
▁provid	-748
▁ra	-749
view	-750
ced	-751
ivers	-752
▁lead	-753
ros	-754
▁sim	-755
▁sk	-756
akes	-757
ality	-758
▁pol	-759
▁end	-760
▁used	-761
▁mod	-762
▁around	-763
▁cur	-764
ces	-765
ives	-766
ier	-767
ric	-768
▁free	-769
ually	-770
▁gr	-771
▁each	-772
ailable	-773
▁care	-774
ublic	-775
ional	-776
▁follow	-777
▁comple	-778
read	-779
ple	-780
led	-781
▁On	-782
▁det	-783
der	-784
▁ret	-785
▁love	-786
▁trans	-787
ize	-788
▁post	-789
▁There	-790
ather	-791
ages	-792
ines	-793
▁child	-794
▁bo	-795
ene	-796
▁system	-797
ars	-798
roup	-799
▁book	-800
▁eas	-801
▁ed	-802
▁num	-803
▁ser	-804
▁How	-805
oad	-806
▁Te	-807
imes	-808
,”	-809
▁really	-810
▁count	-811
ets	-812
▁str	-813
▁program	-814
ton	-815
▁All	-816
▁top	-817
▁run	-818
au	-819
▁custom	-820
▁cour	-821
▁del	-822
iet	-823
▁list	-824
▁So	-825
▁found	-826
ffect	-827
ness	-828
▁month	-829
▁place	-830
▁char	-831
▁form	-832
iel	-833
ah	-834
▁feel	-835
▁prof	-836
▁going	-837
ittle	-838
▁To	-839
ute	-840
▁available	-841
▁inter	-842
▁They	-843
man	-844
▁sign	-845
▁sub	-846
▁market	-847
ature	-848
▁cle	-849
ames	-850
▁still	-851
▁fun	-852
▁Pl	-853
▁somet	-854
ways	-855
▁Bl	-856
▁different	-857
▁gl	-858
cept	-859
▁both	-860
▁aut	-861
ved	-862
▁three	-863
▁few	-864
orn	-865
▁though	-866
▁health	-867
ital	-868
▁Ex	-869
ired	-870
▁pur	-871
▁lot	-872
▁happ	-873
ering	-874
▁adv	-875
▁rep	-876
▁report	-877
▁techn	-878
▁open	-879
ata	-880
meric	-881
ween	-882
▁week	-883
▁company	-884
▁keep	-885
▁plan	-886
▁Sc	-887
orth	-888
▁hand	-889
▁She	-890
bers	-891
ining	-892
tt	-893
iqu	-894
ants	-895
▁point	-896
▁game	-897
▁ext	-898
▁lar	-899
▁sol	-900
▁say	-901
ross	-902
▁Q	-903
▁exp	-904
▁fil	-905
atur	-906
▁frie	-907
▁exc	-908
ology	-909
▁import	-910
▁family	-911
▁same	-912
▁process	-913
▁ev	-914
▁including	-915
▁using	-916
oot	-917
▁met	-918
uc	-919
▁school	-920
▁little	-921
▁project	-922
ized	-923
▁What	-924
▁between	-925
."	-926
ution	-927
ott	-928
▁during	-929
att	-930
ik	-931
▁experience	-932
els	-933
ling	-934
gg	-935
▁state	-936
iving	-937
▁i	-938
▁next	-939
▁Col	-940
uss	-941
be	-942
oh	-943
▁real	-944
aint	-945
ody	-946
▁build	-947
ves	-948
▁service	-949
reen	-950
▁Tr	-951
less	-952
▁allow	-953
ms	-954
▁things	-955
▁come	-956
ished	-957
over	-958
▁water	-959
▁opt	-960
▁contin	-961
▁Americ	-962
thing	-963
▁dri	-964
▁Ph	-965
▁var	-966
ists	-967
uck	-968
ern	-969
ever	-970
ield	-971
▁cent	-972
arly	-973
▁small	-974
▁rece	-975
rand	-976
▁rest	-977
▁organ	-978
self	-979
▁cr	-980
▁appro	-981
▁big	-982
ex	-983
▁always	-984
▁ref	-985
▁Ind	-986
ger	-987
▁mus	-988
▁better	-989
▁sure	-990
▁bel	-991
▁With	-992
▁interest	-993
aut	-994
▁win	-995
illion	-996
▁full	-997
▁poss	-998
▁pass	-999
▁put	-1000
▁online	-1001
▁iss	-1002
▁pat	-1003
▁pri	-1004
gy	-1005
▁ty	-1006
cent	-1007
ined	-1008
▁When	-1009
ware	-1010
▁gener	-1011
▁since	-1012
▁result	-1013
▁try	-1014
▁ve	-1015
▁direct	-1016
▁quest	-1017
iversity	-1018
▁mov	-1019
▁Or	-1020
▁stand	-1021
▁partic	-1022
▁days	-1023
ploy	-1024
▁group	-1025
ps	-1026
▁head	-1027
▁perform	-1028
▁pay	-1029
▁val	-1030
▁ide	-1031
▁class	-1032
▁special	-1033
▁today	-1034
br	-1035
▁something	-1036
▁Chr	-1037
▁second	-1038
▁tri	-1039
ours	-1040
▁ann	-1041
▁sl	-1042
▁services	-1043
▁provide	-1044
▁phot	-1045
ients	-1046
ared	-1047
▁Con	-1048
▁resp	-1049
▁Our	-1050
joy	-1051
ccess	-1052
▁Is	-1053
ok	-1054
▁conf	-1055
▁dist	-1056
▁hard	-1057
▁without	-1058
pping	-1059
▁Z	-1060
▁def	-1061
con	-1062
work	-1063
▁cor	-1064
▁bro	-1065
▁Sp	-1066
▁number	-1067
▁another	-1068
▁must	-1069
ision	-1070
▁vide	-1071
oney	-1072
ER	-1073
stand	-1074
▁current	-1075
▁give	-1076
,"	-1077
▁wom	-1078
outh	-1079
oor	-1080
▁old	-1081
▁able	-1082
aj	-1083
ically	-1084
iver	-1085
▁important	-1086
ately	-1087
ards	-1088
▁webs	-1089
ior	-1090
▁—	-1091
▁access	-1092
ope	-1093
▁soc	-1094
▁cost	-1095
ium	-1096
▁grow	-1097
▁fact	-1098
▁meet	-1099
▁At	-1100
▁invest	-1101
▁got	-1102
▁area	-1103
ruct	-1104
▁Cent	-1105
▁wr	-1106
raph	-1107
▁public	-1108
ral	-1109
▁bre	-1110
▁Res	-1111
ote	-1112
▁visit	-1113
▁light	-1114
▁proble	-1115
ered	-1116
▁incre	-1117
▁working	-1118
▁US	-1119
ense	-1120
ems	-1121
ample	-1122
▁ob	-1123
▁unt	-1124
ann	-1125
pped	-1126
ats	-1127
▁data	-1128
rence	-1129
▁proper	-1130
▁never	-1131
▁level	-1132
▁might	-1133
rol	-1134
▁ask	-1135
▁looking	-1136
▁expl	-1137
▁sal	-1138
ember	-1139
inal	-1140
▁order	-1141
ffic	-1142
▁No	-1143
▁fac	-1144
▁effect	-1145
ential	-1146
▁event	-1147
ley	-1148
▁food	-1149
▁students	-1150
▁local	-1151
ery	-1152
▁four	-1153
▁rese	-1154
▁Man	-1155
▁That	-1156
▁Comm	-1157
▁let	-1158
ird	-1159
▁eng	-1160
eng	-1161
ww	-1162
ency	-1163
▁profess	-1164
ission	-1165
▁offer	-1166
▁inf	-1167
▁Pr	-1168
▁enjoy	-1169
▁check	-1170
▁season	-1171
▁site	-1172
▁spec	-1173
▁addition	-1174
ertain	-1175
▁children	-1176
▁within	-1177
▁test	-1178
▁pos	-1179
▁My	-1180
▁view	-1181
▁making	-1182
▁room	-1183
▁oper	-1184
ording	-1185
lection	-1186
▁sit	-1187
▁prom	-1188
▁power	-1189
gin	-1190
ories	-1191
▁ca	-1192
here	-1193
▁night	-1194
ently	-1195
ney	-1196
▁past	-1197
▁products	-1198
▁community	-1199
sh	-1200
▁pop	-1201
▁Mar	-1202
▁'	-1203
▁until	-1204
▁against	-1205
▁el	-1206
▁sing	-1207
let	-1208
tend	-1209
ream	-1210
ases	-1211
utes	-1212
▁less	-1213
ids	-1214
ains	-1215
▁Br	-1216
▁est	-1217
▁conc	-1218
agement	-1219
med	-1220
ieve	-1221
iron	-1222
ina	-1223
ised	-1224
▁job	-1225
▁May	-1226
ator	-1227
▁email	-1228
▁intern	-1229
to	-1230
▁quality	-1231
▁indust	-1232
ivid	-1233
ged	-1234
ills	-1235
▁impro	-1236
load	-1237
▁website	-1238
▁law	-1239
▁prote	-1240
▁turn	-1241
ode	-1242
orm	-1243
enn	-1244
urs	-1245
▁equ	-1246
ified	-1247
▁away	-1248
▁App	-1249
irl	-1250
icle	-1251
We	-1252
IN	-1253
▁creat	-1254
▁University	-1255
▁contact	-1256
bo	-1257
▁toget	-1258
▁Fe	-1259
▁together	-1260
aring	-1261
co	-1262
istr	-1263
ique	-1264
pend	-1265
▁learn	-1266
▁dr	-1267
▁supp	-1268
▁Can	-1269
▁leg	-1270
ury	-1271
▁pract	-1272
▁success	-1273
▁expect	-1274
▁complete	-1275
iday	-1276
▁Co	-1277
▁applic	-1278
▁include	-1279
por	-1280
▁needs	-1281
ocus	-1282
iety	-1283
atter	-1284
▁Christ	-1285
▁Cont	-1286
▁Fl	-1287
▁.	-1288
ider	-1289
▁air	-1290
▁One	-1291
▁detail	-1292
▁la	-1293
▁Car	-1294
ret	-1295
▁easy	-1296
▁large	-1297
▁news	-1298
▁says	-1299
▁course	-1300
ability	-1301
▁along	-1302
oci	-1303
▁change	-1304
arent	-1305
aster	-1306
▁employ	-1307
vern	-1308
▁offic	-1309
room	-1310
▁present	-1311
▁name	-1312
▁chang	-1313
ism	-1314
hor	-1315
▁beaut	-1316
yle	-1317
▁Am	-1318
ump	-1319
▁Me	-1320
part	-1321
ym	-1322
osed	-1323
atures	-1324
▁activ	-1325
▁cap	-1326
ries	-1327
ec	-1328
▁members	-1329
enef	-1330
▁video	-1331
lish	-1332
ising	-1333
iting	-1334
▁money	-1335
min	-1336
▁Ste	-1337
▁buy	-1338
the	-1339
▁times	-1340
rap	-1341
augh	-1342
▁bas	-1343
une	-1344
ify	-1345
▁house	-1346
▁beh	-1347
▁Eng	-1348
ane	-1349
▁fav	-1350
▁music	-1351
▁pa	-1352
▁opport	-1353
cl	-1354
itions	-1355
▁sw	-1356
▁dem	-1357
▁These	-1358
ift	-1359
▁/	-1360
Th	-1361
▁why	-1362
side	-1363
ably	-1364
by	-1365
▁hist	-1366
nect	-1367
▁case	-1368
▁En	-1369
▁ce	-1370
▁dra	-1371
▁cond	-1372
▁please	-1373
rie	-1374
veral	-1375
ots	-1376
ron	-1377
▁treat	-1378
▁perfect	-1379
pecial	-1380
mber	-1381
ready	-1382
aff	-1383
▁live	-1384
▁govern	-1385
▁thing	-1386
ten	-1387
▁Do	-1388
ention	-1389
fort	-1390
aterial	-1391
▁short	-1392
▁create	-1393
▁following	-1394
▁Che	-1395
▁story	-1396
book	-1397
▁dev	-1398
ization	-1399
▁account	-1400
▁left	-1401
viron	-1402
!!	-1403
▁million	-1404
ived	-1405
▁const	-1406
son	-1407
ON	-1408
▁understand	-1409
▁below	-1410
▁hum	-1411
▁side	-1412
▁review	-1413
▁having	-1414
ored	-1415
alf	-1416
ohn	-1417
itive	-1418
▁trad	-1419
▁After	-1420
▁hot	-1421
ows	-1422
▁Your	-1423
sc	-1424
▁page	-1425
▁makes	-1426
▁based	-1427
of	-1428
▁focus	-1429
▁word	-1430
▁move	-1431
▁Med	-1432
▁research	-1433
RE	-1434
▁across	-1435
▁camp	-1436
▁writ	-1437
▁kind	-1438
AT	-1439
rop	-1440
▁line	-1441
ienc	-1442
▁personal	-1443
▁link	-1444
▁ever	-1445
ances	-1446
▁cou	-1447
▁getting	-1448
uly	-1449
▁possible	-1450
▁mar	-1451
▁comes	-1452
▁pot	-1453
▁already	-1454
vious	-1455
▁benef	-1456
uture	-1457
▁educ	-1458
ividual	-1459
ajor	-1460
ured	-1461
osp	-1462
▁elect	-1463
▁record	-1464
▁country	-1465
uper	-1466
▁become	-1467
▁soft	-1468
▁share	-1469
▁friends	-1470
ination	-1471
aces	-1472
oice	-1473
▁often	-1474
▁several	-1475
ush	-1476
▁done	-1477
▁bit	-1478
ister	-1479
orts	-1480
iven	-1481
ee	-1482
▁Ass	-1483
▁Count	-1484
▁es	-1485
▁pack	-1486
▁social	-1487
wards	-1488
▁fund	-1489
duct	-1490
▁enough	-1491
ead	-1492
iam	-1493
conom	-1494
▁quick	-1495
▁tre	-1496
▁mil	-1497
▁minutes	-1498
ones	-1499
▁Please	-1500
inc	-1501
▁bring	-1502
uff	-1503
▁net	-1504
▁women	-1505
▁Inst	-1506
fer	-1507
▁Comp	-1508
▁vers	-1509
unch	-1510
▁tell	-1511
▁development	-1512
▁hours	-1513
app	-1514
▁body	-1515
▁John	-1516
▁talk	-1517
arl	-1518
▁Serv	-1519
ips	-1520
ides	-1521
▁mult	-1522
oose	-1523
vironment	-1524
iful	-1525
▁cut	-1526
▁Des	-1527
▁purch	-1528
▁return	-1529
aim	-1530
▁city	-1531
mend	-1532
▁:	-1533
▁men	-1534
ape	-1535
ners	-1536
▁deal	-1537
reet	-1538
oon	-1539
▁Wor	-1540
▁X	-1541
▁Intern	-1542
AN	-1543
▁won	-1544
▁individual	-1545
▁sum	-1546
▁	-1547
e	-1548
t	-1549
a	-1550
o	-1551
i	-1552
n	-1553
s	-1554
r	-1555
h	-1556
l	-1557
d	-1558
c	-1559
u	-1560
m	-1561
p	-1562
g	-1563
f	-1564
y	-1565
w	-1566
b	-1567
.	-1568
v	-1569
,	-1570
k	-1571
T	-1572
S	-1573
I	-1574
A	-1575
-	-1576
C	-1577
0	-1578
M	-1579
1	-1580
P	-1581
x	-1582
B	-1583
2	-1584
W	-1585
D	-1586
R	-1587
E	-1588
H	-1589
F	-1590
’	-1591
L	-1592
N	-1593
O	-1594
:	-1595
'	-1596
G	-1597
j	-1598
)	-1599
(	-1600
z	-1601
3	-1602
5	-1603
q	-1604
U	-1605
4	-1606
"	-1607
9	-1608
J	-1609
8	-1610
6	-1611
V	-1612
Y	-1613
K	-1614
|	-1615
7	-1616
!	-1617
/	-1618
“	-1619
”	-1620
?	-1621
–	-1622
;	-1623
&	-1624
$	-1625
Q	-1626
%	-1627
—	-1628
X	-1629
Z	-1630
*	-1631
