<pad>	0
<s>	0
</s>	0
<unk>	0
<0x00>	0
<0x01>	0
<0x02>	0
<0x03>	0
<0x04>	0
<0x05>	0
<0x06>	0
<0x07>	0
<0x08>	0
<0x09>	0
<0x0A>	0
<0x0B>	0
<0x0C>	0
<0x0D>	0
<0x0E>	0
<0x0F>	0
<0x10>	0
<0x11>	0
<0x12>	0
<0x13>	0
<0x14>	0
<0x15>	0
<0x16>	0
<0x17>	0
<0x18>	0
<0x19>	0
<0x1A>	0
<0x1B>	0
<0x1C>	0
<0x1D>	0
<0x1E>	0
<0x1F>	0
<0x20>	0
<0x21>	0
<0x22>	0
<0x23>	0
<0x24>	0
<0x25>	0
<0x26>	0
<0x27>	0
<0x28>	0
<0x29>	0
<0x2A>	0
<0x2B>	0
<0x2C>	0
<0x2D>	0
<0x2E>	0
<0x2F>	0
<0x30>	0
<0x31>	0
<0x32>	0
<0x33>	0
<0x34>	0
<0x35>	0
<0x36>	0
<0x37>	0
<0x38>	0
<0x39>	0
<0x3A>	0
<0x3B>	0
<0x3C>	0
<0x3D>	0
<0x3E>	0
<0x3F>	0
<0x40>	0
<0x41>	0
<0x42>	0
<0x43>	0
<0x44>	0
<0x45>	0
<0x46>	0
<0x47>	0
<0x48>	0
<0x49>	0
<0x4A>	0
<0x4B>	0
<0x4C>	0
<0x4D>	0
<0x4E>	0
<0x4F>	0
<0x50>	0
<0x51>	0
<0x52>	0
<0x53>	0
<0x54>	0
<0x55>	0
<0x56>	0
<0x57>	0
<0x58>	0
<0x59>	0
<0x5A>	0
<0x5B>	0
<0x5C>	0
<0x5D>	0
<0x5E>	0
<0x5F>	0
<0x60>	0
<0x61>	0
<0x62>	0
<0x63>	0
<0x64>	0
<0x65>	0
<0x66>	0
<0x67>	0
<0x68>	0
<0x69>	0
<0x6A>	0
<0x6B>	0
<0x6C>	0
<0x6D>	0
<0x6E>	0
<0x6F>	0
<0x70>	0
<0x71>	0
<0x72>	0
<0x73>	0
<0x74>	0
<0x75>	0
<0x76>	0
<0x77>	0
<0x78>	0
<0x79>	0
<0x7A>	0
<0x7B>	0
<0x7C>	0
<0x7D>	0
<0x7E>	0
<0x7F>	0
<0x80>	0
<0x81>	0
<0x82>	0
<0x83>	0
<0x84>	0
<0x85>	0
<0x86>	0
<0x87>	0
<0x88>	0
<0x89>	0
<0x8A>	0
<0x8B>	0
<0x8C>	0
<0x8D>	0
<0x8E>	0
<0x8F>	0
<0x90>	0
<0x91>	0
<0x92>	0
<0x93>	0
<0x94>	0
<0x95>	0
<0x96>	0
<0x97>	0
<0x98>	0
<0x99>	0
<0x9A>	0
<0x9B>	0
<0x9C>	0
<0x9D>	0
<0x9E>	0
<0x9F>	0
<0xA0>	0
<0xA1>	0
<0xA2>	0
<0xA3>	0
<0xA4>	0
<0xA5>	0
<0xA6>	0
<0xA7>	0
<0xA8>	0
<0xA9>	0
<0xAA>	0
<0xAB>	0
<0xAC>	0
<0xAD>	0
<0xAE>	0
<0xAF>	0
<0xB0>	0
<0xB1>	0
<0xB2>	0
<0xB3>	0
<0xB4>	0
<0xB5>	0
<0xB6>	0
<0xB7>	0
<0xB8>	0
<0xB9>	0
<0xBA>	0
<0xBB>	0
<0xBC>	0
<0xBD>	0
<0xBE>	0
<0xBF>	0
<0xC0>	0
<0xC1>	0
<0xC2>	0
<0xC3>	0
<0xC4>	0
<0xC5>	0
<0xC6>	0
<0xC7>	0
<0xC8>	0
<0xC9>	0
<0xCA>	0
<0xCB>	0
<0xCC>	0
<0xCD>	0
<0xCE>	0
<0xCF>	0
<0xD0>	0
<0xD1>	0
<0xD2>	0
<0xD3>	0
<0xD4>	0
<0xD5>	0
<0xD6>	0
<0xD7>	0
<0xD8>	0
<0xD9>	0
<0xDA>	0
<0xDB>	0
<0xDC>	0
<0xDD>	0
<0xDE>	0
<0xDF>	0
<0xE0>	0
<0xE1>	0
<0xE2>	0
<0xE3>	0
<0xE4>	0
<0xE5>	0
<0xE6>	0
<0xE7>	0
<0xE8>	0
<0xE9>	0
<0xEA>	0
<0xEB>	0
<0xEC>	0
<0xED>	0
<0xEE>	0
<0xEF>	0
<0xF0>	0
<0xF1>	0
<0xF2>	0
<0xF3>	0
<0xF4>	0
<0xF5>	0
<0xF6>	0
<0xF7>	0
<0xF8>	0
<0xF9>	0
<0xFA>	0
<0xFB>	0
<0xFC>	0
<0xFD>	0
<0xFE>	0
<0xFF>	0
▁t	-0
▁a	-1
in	-2
he	-3
re	-4
on	-5
er	-6
▁the	-7
▁s	-8
▁w	-9
or	-10
at	-11
nd	-12
ou	-13
▁c	-14
it	-15
es	-16
▁f	-17
is	-18
en	-19
ing	-20
▁b	-21
▁p	-22
▁o	-23
an	-24
ed	-25
al	-26
▁to	-27
▁m	-28
ar	-29
▁and	-30
▁in	-31
▁of	-32
▁d	-33
le	-34
ic	-35
as	-36
om	-37
▁h	-38
ion	-39
▁th	-40
il	-41
▁T	-42
ent	-43
▁l	-44
ve	-45
▁y	-46
ro	-47
st	-48
▁I	-49
▁e	-50
▁re	-51
▁n	-52
▁S	-53
▁g	-54
et	-55
ct	-56
▁A	-57
▁you	-58
▁C	-59
ly	-60
▁for	-61
id	-62
▁is	-63
ay	-64
▁on	-65
▁be	-66
ot	-67
ow	-68
ol	-69
am	-70
ac	-71
ig	-72
us	-73
el	-74
ad	-75
im	-76
▁M	-77
ver	-78
ith	-79
ut	-80
▁st	-81
ation	-82
ur	-83
▁P	-84
▁with	-85
▁that	-86
ir	-87
▁B	-88
▁W	-89
ch	-90
ce	-91
▁The	-92
▁it	-93
▁he	-94
ill	-95
ers	-96
▁al	-97
un	-98
ul	-99
▁an	-100
▁D	-101
▁H	-102
▁F	-103
ra	-104
out	-105
▁as	-106
▁pro	-107
▁wh	-108
ke	-109
▁are	-110
se	-111
ter	-112
▁we	-113
if	-114
oo	-115
ge	-116
▁ha	-117
our	-118
▁R	-119
pp	-120
ate	-121
ess	-122
▁at	-123
▁con	-124
▁com	-125
▁or	-126
▁L	-127
est	-128
her	-129
ore	-130
ment	-131
▁fr	-132
ab	-133
igh	-134
▁-	-135
▁ne	-136
▁N	-137
▁se	-138
ort	-139
▁G	-140
ld	-141
▁your	-142
▁E	-143
ist	-144
ri	-145
op	-146
▁(	-147
▁ex	-148
ity	-149
ure	-150
em	-151
▁O	-152
▁v	-153
qu	-154
ant	-155
art	-156
ive	-157
▁r	-158
ust	-159
▁was	-160
um	-161
▁have	-162
pe	-163
▁from	-164
▁this	-165
▁de	-166
oc	-167
▁sh	-168
th	-169
ain	-170
ies	-171
▁can	-172
up	-173
▁will	-174
▁ch	-175
and	-176
▁by	-177
os	-178
ight	-179
nt	-180
ie	-181
▁us	-182
ome	-183
all	-184
ard	-185
▁not	-186
ud	-187
res	-188
▁le	-189
▁J	-190
ast	-191
▁pl	-192
ost	-193
▁su	-194
▁ab	-195
iv	-196
ear	-197
▁wor	-198
ide	-199
ack	-200
ial	-201
rou	-202
▁all	-203
gh	-204
ell	-205
od	-206
ak	-207
te	-208
ine	-209
ould	-210
▁j	-211
ag	-212
red	-213
▁has	-214
..	-215
ice	-216
▁Th	-217
▁U	-218
age	-219
▁do	-220
▁k	-221
fe	-222
ook	-223
▁ad	-224
per	-225
▁In	-226
ip	-227
▁comp	-228
ake	-229
▁out	-230
ally	-231
ions	-232
▁up	-233
are	-234
▁but	-235
▁me	-236
▁whe	-237
pt	-238
ry	-239
▁our	-240
able	-241
▁“	-242
one	-243
ind	-244
og	-245
▁en	-246
▁more	-247
ail	-248
ite	-249
ther	-250
▁their	-251
▁Y	-252
ich	-253
ime	-254
very	-255
cc	-256
▁so	-257
▁cl	-258
ood	-259
ong	-260
ated	-261
▁K	-262
▁my	-263
▁sa	-264
for	-265
ame	-266
iz	-267
ber	-268
▁they	-269
▁St	-270
ace	-271
▁te	-272
▁one	-273
so	-274
ous	-275
ans	-276
act	-277
pl	-278
▁about	-279
ike	-280
du	-281
▁cont	-282
ase	-283
▁V	-284
▁im	-285
ick	-286
ia	-287
▁work	-288
▁inc	-289
ign	-290
ance	-291
▁un	-292
ire	-293
▁off	-294
ree	-295
▁who	-296
▁fe	-297
▁man	-298
ue	-299
ach	-300
▁tr	-301
reat	-302
ub	-303
▁It	-304
ll	-305
▁go	-306
ction	-307
ne	-308
▁new	-309
▁year	-310
▁app	-311
ult	-312
▁his	-313
ib	-314
ays	-315
▁"	-316
▁Ch	-317
erv	-318
▁We	-319
und	-320
▁res	-321
ap	-322
ass	-323
ark	-324
ep	-325
ff	-326
▁qu	-327
ations	-328
ary	-329
▁per	-330
▁also	-331
▁sp	-332
ile	-333
ove	-334
▁int	-335
▁which	-336
▁time	-337
ven	-338
form	-339
▁get	-340
ount	-341
own	-342
▁like	-343
▁some	-344
▁other	-345
ond	-346
ings	-347
ents	-348
vel	-349
▁any	-350
ical	-351
ence	-352
▁part	-353
av	-354
▁been	-355
▁dis	-356
▁This	-357
▁over	-358
ition	-359
ress	-360
ors	-361
▁rec	-362
▁them	-363
ck	-364
▁He	-365
▁ar	-366
▁sc	-367
ild	-368
▁pe	-369
ink	-370
port	-371
▁ag	-372
low	-373
▁ro	-374
▁her	-375
▁when	-376
ound	-377
ose	-378
▁kn	-379
mer	-380
int	-381
ord	-382
oy	-383
ish	-384
ob	-385
irst	-386
▁need	-387
▁said	-388
ens	-389
ough	-390
▁pr	-391
ov	-392
▁pre	-393
▁just	-394
ru	-395
▁spe	-396
wn	-397
▁acc	-398
▁what	-399
ren	-400
▁there	-401
▁if	-402
▁Re	-403
▁than	-404
▁its	-405
day	-406
vers	-407
▁would	-408
fter	-409
▁had	-410
ater	-411
ade	-412
ning	-413
lud	-414
▁were	-415
▁am	-416
lp	-417
▁–	-418
rough	-419
▁into	-420
old	-421
▁des	-422
ory	-423
ople	-424
itt	-425
ang	-426
▁tw	-427
▁how	-428
▁help	-429
use	-430
anc	-431
lic	-432
ool	-433
▁bec	-434
▁first	-435
▁add	-436
ks	-437
▁make	-438
▁comm	-439
amp	-440
ons	-441
...	-442
hed	-443
▁Wh	-444
▁prov	-445
▁look	-446
ft	-447
▁You	-448
▁people	-449
▁includ	-450
ual	-451
les	-452
▁bl	-453
▁serv	-454
gr	-455
ian	-456
▁col	-457
ments	-458
ful	-459
▁know	-460
▁produ	-461
iew	-462
ates	-463
▁Ne	-464
ious	-465
rent	-466
▁em	-467
tern	-468
▁she	-469
round	-470
▁every	-471
▁through	-472
▁may	-473
▁no	-474
ating	-475
▁only	-476
▁back	-477
pport	-478
▁most	-479
▁bu	-480
▁want	-481
ict	-482
ect	-483
▁As	-484
ices	-485
▁If	-486
▁well	-487
▁see	-488
we	-489
▁ph	-490
ities	-491
▁bet	-492
▁ind	-493
ise	-494
▁use	-495
▁two	-496
xt	-497
com	-498
ont	-499
▁act	-500
▁und	-501
iss	-502
iness	-503
lect	-504
▁after	-505
▁Se	-506
ause	-507
ife	-508
ph	-509
▁play	-510
fect	-511
▁|	-512
▁co	-513
oth	-514
▁&	-515
row	-516
ily	-517
enc	-518
ock	-519
▁exper	-520
ject	-521
▁cons	-522
hen	-523
urn	-524
▁fl	-525
▁years	-526
ert	-527
als	-528
▁tra	-529
▁these	-530
ting	-531
cial	-532
▁$	-533
aw	-534
▁Com	-535
▁An	-536
▁bus	-537
▁Un	-538
▁For	-539
▁stud	-540
ange	-541
▁good	-542
any	-543
bs	-544
vent	-545
ures	-546
aking	-547
ational	-548
ased	-549
▁ke	-550
ific	-551
▁now	-552
▁Pro	-553
▁under	-554
fore	-555
▁very	-556
▁many	-557
▁sm	-558
▁reg	-559
hing	-560
ward	-561
▁imp	-562
get	-563
oint	-564
▁way	-565
▁dif	-566
erson	-567
▁start	-568
ience	-569
ts	-570
pect	-571
▁wee	-572
▁fin	-573
▁De	-574
▁great	-575
▁And	-576
▁rel	-577
uring	-578
yst	-579
formation	-580
▁gu	-581
▁could	-582
ility	-583
▁rem	-584
ible	-585
▁dec	-586
oss	-587
uch	-588
▁even	-589
hip	-590
ty	-591
▁inv	-592
).	-593
ics	-594
▁loc	-595
rit	-596
ract	-597
▁sec	-598
▁day	-599
▁own	-600
cess	-601
velop	-602
▁where	-603
▁show	-604
ork	-605
ident	-606
elf	-607
alth	-608
hes	-609
its	-610
▁high	-611
▁find	-612
air	-613
ull	-614
nds	-615
▁don	-616
olog	-617
▁home	-618
▁ass	-619
▁should	-620
ath	-621
line	-622
▁here	-623
▁ent	-624
▁down	-625
▁best	-626
▁then	-627
lease	-628
▁Sh	-629
ble	-630
ied	-631
ular	-632
▁br	-633
▁Al	-634
▁right	-635
The	-636
arch	-637
chool	-638
||	-639
▁ac	-640
▁set	-641
ited	-642
▁car	-643
▁New	-644
▁read	-645
▁av	-646
▁mon	-647
▁min	-648
▁take	-649
gan	-650
erm	-651
▁business	-652
▁fam	-653
ix	-654
ner	-655
▁ins	-656
▁inst	-657
▁att	-658
▁design	-659
▁too	-660
ystem	-661
ys	-662
.”	-663
▁che	-664
▁much	-665
▁long	-666
io	-667
ative	-668
▁Be	-669
▁information	-670
▁Cl	-671
▁made	-672
▁last	-673
ollow	-674
ason	-675
other	-676
ues	-677
▁because	-678
omet	-679
arket	-680
gram	-681
▁product	-682
▁Fr	-683
ank	-684
ax	-685
),	-686
rib	-687
▁did	-688
▁call	-689
▁think	-690
▁before	-691
▁world	-692
▁team	-693
me	-694
atch	-695
▁cre	-696
ale	-697
oun	-698
▁again	-699
pen	-700
▁But	-701
▁sur	-702
pr	-703
▁vis	-704
ower	-705
ient	-706
az	-707
▁Ad	-708
▁art	-709
chn	-710
▁being	-711
way	-712
▁develop	-713
▁requ	-714
▁diffe	-715
ustom	-716
▁pres	-717
rest	-718
▁person	-719
▁Le	-720
ng	-721
ener	-722
▁such	-723
▁disc	-724
▁inte	-725
land	-726
▁mem	-727
▁him	-728
alk	-729
ug	-730
▁life	-731
arn	-732
▁support	-733
ving	-734
ouse	-735
unity	-736
ave	-737
ince	-738
▁does	-739
irect	-740
▁med	-741
▁Ar	-742
▁those	-743
▁while	-744
ins	-745
ash	-746
arm	-747
▁provid	-748
▁ra	-749
view	-750
ced	-751
ivers	-752
▁lead	-753
ros	-754
▁sim	-755
▁sk	-756
akes	-757
ality	-758
▁pol	-759
▁end	-760
▁used	-761
▁mod	-762
▁around	-763
▁cur	-764
ces	-765
ives	-766
ier	-767
ric	-768
▁free	-769
ually	-770
▁gr	-771
▁each	-772
ailable	-773
▁care	-774
ublic	-775
ional	-776
▁follow	-777
▁comple	-778
read	-779
ple	-780
led	-781
▁On	-782
▁det	-783
der	-784
▁ret	-785
▁love	-786
▁trans	-787
ize	-788
▁post	-789
▁There	-790
ather	-791
ages	-792
ines	-793
▁child	-794
▁bo	-795
ene	-796
▁system	-797
ars	-798
roup	-799
▁book	-800
▁eas	-801
▁ed	-802
▁num	-803
▁ser	-804
▁How	-805
oad	-806
▁Te	-807
imes	-808
,”	-809
▁really	-810
▁count	-811
ets	-812
▁str	-813
▁program	-814
ton	-815
▁All	-816
▁top	-817
▁run	-818
au	-819
▁custom	-820
▁cour	-821
▁del	-822
iet	-823
▁list	-824
▁So	-825
▁found	-826
ffect	-827
ness	-828
▁month	-829
▁place	-830
▁char	-831
▁form	-832
iel	-833
ah	-834
▁feel	-835
▁prof	-836
▁going	-837
ittle	-838
▁To	-839
ute	-840
▁available	-841
▁inter	-842
▁They	-843
man	-844
▁sign	-845
▁sub	-846
▁market	-847
ature	-848
▁cle	-849
ames	-850
▁still	-851
▁fun	-852
▁Pl	-853
▁somet	-854
ways	-855
▁Bl	-856
▁different	-857
▁gl	-858
cept	-859
▁both	-860
▁aut	-861
ved	-862
▁three	-863
▁few	-864
orn	-865
▁though	-866
▁health	-867
ital	-868
▁Ex	-869
ired	-870
▁pur	-871
▁lot	-872
▁happ	-873
ering	-874
▁adv	-875
▁rep	-876
▁report	-877
▁techn	-878
▁open	-879
ata	-880
meric	-881
ween	-882
▁week	-883
▁company	-884
▁keep	-885
▁plan	-886
▁Sc	-887
orth	-888
▁hand	-889
▁She	-890
bers	-891
ining	-892
tt	-893
iqu	-894
ants	-895
▁point	-896
▁game	-897
▁ext	-898
▁lar	-899
▁sol	-900
▁say	-901
ross	-902
▁Q	-903
▁exp	-904
▁fil	-905
atur	-906
▁frie	-907
▁exc	-908
ology	-909
▁import	-910
▁family	-911
▁same	-912
▁process	-913
▁ev	-914
▁including	-915
▁using	-916
oot	-917
▁met	-918
uc	-919
▁school	-920
▁little	-921
▁project	-922
ized	-923
▁What	-924
▁between	-925
."	-926
ution	-927
ott	-928
▁during	-929
att	-930
ik	-931
▁experience	-932
els	-933
ling	-934
gg	-935
▁state	-936
iving	-937
▁i	-938
▁next	-939
▁Col	-940
uss	-941
be	-942
oh	-943
▁real	-944
aint	-945
ody	-946
▁build	-947
ves	-948
▁service	-949
reen	-950
▁Tr	-951
less	-952
▁allow	-953
ms	-954
▁things	-955
▁come	-956
ished	-957
over	-958
▁water	-959
▁opt	-960
▁contin	-961
▁Americ	-962
thing	-963
▁dri	-964
▁Ph	-965
▁var	-966
ists	-967
uck	-968
ern	-969
ever	-970
ield	-971
▁cent	-972
arly	-973
▁small	-974
▁rece	-975
rand	-976
▁rest	-977
▁organ	-978
self	-979
▁cr	-980
▁appro	-981
▁big	-982
ex	-983
▁always	-984
▁ref	-985
▁Ind	-986
ger	-987
▁mus	-988
▁better	-989
▁sure	-990
▁bel	-991
▁With	-992
▁interest	-993
aut	-994
▁win	-995
illion	-996
▁full	-997
▁poss	-998
▁pass	-999
▁put	-1000
▁online	-1001
▁iss	-1002
▁pat	-1003
▁pri	-1004
gy	-1005
▁ty	-1006
cent	-1007
ined	-1008
▁When	-1009
ware	-1010
▁gener	-1011
▁since	-1012
▁result	-1013
▁try	-1014
▁ve	-1015
▁direct	-1016
▁quest	-1017
iversity	-1018
▁mov	-1019
▁Or	-1020
▁stand	-1021
▁partic	-1022
▁days	-1023
ploy	-1024
▁group	-1025
ps	-1026
▁head	-1027
▁perform	-1028
▁pay	-1029
▁val	-1030
▁ide	-1031
▁class	-1032
▁special	-1033
▁today	-1034
br	-1035
▁something	-1036
▁Chr	-1037
▁second	-1038
▁tri	-1039
ours	-1040
▁ann	-1041
▁sl	-1042
▁services	-1043
▁provide	-1044
▁phot	-1045
ients	-1046
ared	-1047
▁Con	-1048
▁resp	-1049
▁Our	-1050
joy	-1051
ccess	-1052
▁Is	-1053
ok	-1054
▁conf	-1055
▁dist	-1056
▁hard	-1057
▁without	-1058
pping	-1059
▁Z	-1060
▁def	-1061
con	-1062
work	-1063
▁cor	-1064
▁bro	-1065
▁Sp	-1066
▁number	-1067
▁another	-1068
▁must	-1069
ision	-1070
▁vide	-1071
oney	-1072
ER	-1073
stand	-1074
▁current	-1075
▁give	-1076
,"	-1077
▁wom	-1078
outh	-1079
oor	-1080
▁old	-1081
▁able	-1082
aj	-1083
ically	-1084
iver	-1085
▁important	-1086
ately	-1087
ards	-1088
▁webs	-1089
ior	-1090
▁—	-1091
▁access	-1092
ope	-1093
▁soc	-1094
▁cost	-1095
ium	-1096
▁grow	-1097
▁fact	-1098
▁meet	-1099
▁At	-1100
▁invest	-1101
▁got	-1102
▁area	-1103
ruct	-1104
▁Cent	-1105
▁wr	-1106
raph	-1107
▁public	-1108
ral	-1109
▁bre	-1110
▁Res	-1111
ote	-1112
▁visit	-1113
▁light	-1114
▁proble	-1115
ered	-1116
▁incre	-1117
▁working	-1118
▁US	-1119
ense	-1120
ems	-1121
ample	-1122
▁ob	-1123
▁unt	-1124
ann	-1125
pped	-1126
ats	-1127
▁data	-1128
rence	-1129
▁proper	-1130
▁never	-1131
▁level	-1132
▁might	-1133
rol	-1134
▁ask	-1135
▁looking	-1136
▁expl	-1137
▁sal	-1138
ember	-1139
inal	-1140
▁order	-1141
ffic	-1142
▁No	-1143
▁fac	-1144
▁effect	-1145
ential	-1146
▁event	-1147
ley	-1148
▁food	-1149
▁students	-1150
▁local	-1151
ery	-1152
▁four	-1153
▁rese	-1154
▁Man	-1155
▁That	-1156
▁Comm	-1157
▁let	-1158
ird	-1159
▁eng	-1160
eng	-1161
ww	-1162
ency	-1163
▁profess	-1164
ission	-1165
▁offer	-1166
▁inf	-1167
▁Pr	-1168
▁enjoy	-1169
▁check	-1170
▁season	-1171
▁site	-1172
▁spec	-1173
▁addition	-1174
ertain	-1175
▁children	-1176
▁within	-1177
▁test	-1178
▁pos	-1179
▁My	-1180
▁view	-1181
▁making	-1182
▁room	-1183
▁oper	-1184
ording	-1185
lection	-1186
▁sit	-1187
▁prom	-1188
▁power	-1189
gin	-1190
ories	-1191
▁ca	-1192
here	-1193
▁night	-1194
ently	-1195
ney	-1196
▁past	-1197
▁products	-1198
▁community	-1199
sh	-1200
▁pop	-1201
▁Mar	-1202
▁'	-1203
▁until	-1204
▁against	-1205
▁el	-1206
▁sing	-1207
let	-1208
tend	-1209
ream	-1210
ases	-1211
utes	-1212
▁less	-1213
ids	-1214
ains	-1215
▁Br	-1216
▁est	-1217
▁conc	-1218
agement	-1219
med	-1220
ieve	-1221
iron	-1222
ina	-1223
ised	-1224
▁job	-1225
▁May	-1226
ator	-1227
▁email	-1228
▁intern	-1229
to	-1230
▁quality	-1231
▁indust	-1232
ivid	-1233
ged	-1234
ills	-1235
▁impro	-1236
load	-1237
▁website	-1238
▁law	-1239
▁prote	-1240
▁turn	-1241
ode	-1242
orm	-1243
enn	-1244
urs	-1245
▁equ	-1246
ified	-1247
▁away	-1248
▁App	-1249
irl	-1250
icle	-1251
We	-1252
IN	-1253
▁creat	-1254
▁University	-1255
▁contact	-1256
bo	-1257
▁toget	-1258
▁Fe	-1259
▁together	-1260
aring	-1261
co	-1262
istr	-1263
ique	-1264
pend	-1265
▁learn	-1266
▁dr	-1267
▁supp	-1268
▁Can	-1269
▁leg	-1270
ury	-1271
▁pract	-1272
▁success	-1273
▁expect	-1274
▁complete	-1275
iday	-1276
▁Co	-1277
▁applic	-1278
▁include	-1279
por	-1280
▁needs	-1281
ocus	-1282
iety	-1283
atter	-1284
▁Christ	-1285
▁Cont	-1286
▁Fl	-1287
▁.	-1288
ider	-1289
▁air	-1290
▁One	-1291
▁detail	-1292
▁la	-1293
▁Car	-1294
ret	-1295
▁easy	-1296
▁large	-1297
▁news	-1298
▁says	-1299
▁course	-1300
ability	-1301
▁along	-1302
oci	-1303
▁change	-1304
arent	-1305
aster	-1306
▁employ	-1307
vern	-1308
▁offic	-1309
room	-1310
▁present	-1311
▁name	-1312
▁chang	-1313
ism	-1314
hor	-1315
▁beaut	-1316
yle	-1317
▁Am	-1318
ump	-1319
▁Me	-1320
part	-1321
ym	-1322
osed	-1323
atures	-1324
▁activ	-1325
▁cap	-1326
ries	-1327
ec	-1328
▁members	-1329
enef	-1330
▁video	-1331
lish	-1332
ising	-1333
iting	-1334
▁money	-1335
min	-1336
▁Ste	-1337
▁buy	-1338
the	-1339
▁times	-1340
rap	-1341
augh	-1342
▁bas	-1343
une	-1344
ify	-1345
▁house	-1346
▁beh	-1347
▁Eng	-1348
ane	-1349
▁fav	-1350
▁music	-1351
▁pa	-1352
▁opport	-1353
cl	-1354
itions	-1355
▁sw	-1356
▁dem	-1357
▁These	-1358
ift	-1359
▁/	-1360
Th	-1361
▁why	-1362
side	-1363
ably	-1364
by	-1365
▁hist	-1366
nect	-1367
▁case	-1368
▁En	-1369
▁ce	-1370
▁dra	-1371
▁cond	-1372
▁please	-1373
rie	-1374
veral	-1375
ots	-1376
ron	-1377
▁treat	-1378
▁perfect	-1379
pecial	-1380
mber	-1381
ready	-1382
aff	-1383
▁live	-1384
▁govern	-1385
▁thing	-1386
ten	-1387
▁Do	-1388
ention	-1389
fort	-1390
aterial	-1391
▁short	-1392
▁create	-1393
▁following	-1394
▁Che	-1395
▁story	-1396
book	-1397
▁dev	-1398
ization	-1399
▁account	-1400
▁left	-1401
viron	-1402
!!	-1403
▁million	-1404
ived	-1405
▁const	-1406
son	-1407
ON	-1408
▁understand	-1409
▁below	-1410
▁hum	-1411
▁side	-1412
▁review	-1413
▁having	-1414
ored	-1415
alf	-1416
ohn	-1417
itive	-1418
▁trad	-1419
▁After	-1420
▁hot	-1421
ows	-1422
▁Your	-1423
sc	-1424
▁page	-1425
▁makes	-1426
▁based	-1427
of	-1428
▁focus	-1429
▁word	-1430
▁move	-1431
▁Med	-1432
▁research	-1433
RE	-1434
▁across	-1435
▁camp	-1436
▁writ	-1437
▁kind	-1438
AT	-1439
rop	-1440
▁line	-1441
ienc	-1442
▁personal	-1443
▁link	-1444
▁ever	-1445
ances	-1446
▁cou	-1447
▁getting	-1448
uly	-1449
▁possible	-1450
▁mar	-1451
▁comes	-1452
▁pot	-1453
▁already	-1454
vious	-1455
▁benef	-1456
uture	-1457
▁educ	-1458
ividual	-1459
ajor	-1460
ured	-1461
osp	-1462
▁elect	-1463
▁record	-1464
▁country	-1465
uper	-1466
▁become	-1467
▁soft	-1468
▁share	-1469
▁friends	-1470
ination	-1471
aces	-1472
oice	-1473
▁often	-1474
▁several	-1475
ush	-1476
▁done	-1477
▁bit	-1478
ister	-1479
orts	-1480
iven	-1481
ee	-1482
▁Ass	-1483
▁Count	-1484
▁es	-1485
▁pack	-1486
▁social	-1487
wards	-1488
▁fund	-1489
duct	-1490
▁enough	-1491
ead	-1492
iam	-1493
conom	-1494
▁quick	-1495
▁tre	-1496
▁mil	-1497
▁minutes	-1498
ones	-1499
▁Please	-1500
inc	-1501
▁bring	-1502
uff	-1503
▁net	-1504
▁women	-1505
▁Inst	-1506
fer	-1507
▁Comp	-1508
▁vers	-1509
unch	-1510
▁tell	-1511
▁development	-1512
▁hours	-1513
app	-1514
▁body	-1515
▁John	-1516
▁talk	-1517
arl	-1518
▁Serv	-1519
ips	-1520
ides	-1521
▁mult	-1522
oose	-1523
vironment	-1524
iful	-1525
▁cut	-1526
▁Des	-1527
▁purch	-1528
▁return	-1529
aim	-1530
▁city	-1531
mend	-1532
▁:	-1533
▁men	-1534
ape	-1535
ners	-1536
▁deal	-1537
reet	-1538
oon	-1539
▁Wor	-1540
▁X	-1541
▁Intern	-1542
AN	-1543
▁won	-1544
▁individual	-1545
▁sum	-1546
▁young	-1547
ograph	-1548
▁compet	-1549
ted	-1550
uro	-1551
▁...	-1552
▁ens	-1553
ST	-1554
▁months	-1555
▁hold	-1556
▁called	-1557
▁Here	-1558
▁didn	-1559
ateg	-1560
▁mom	-1561
▁started	-1562
idd	-1563
▁Tw	-1564
▁others	-1565
▁Rep	-1566
yn	-1567
▁material	-1568
▁jo	-1569
▁term	-1570
err	-1571
ights	-1572
▁non	-1573
utions	-1574
▁land	-1575
▁orig	-1576
▁industry	-1577
nder	-1578
ript	-1579
▁Gu	-1580
▁clean	-1581
▁rele	-1582
ober	-1583
▁American	-1584
.,	-1585
ai	-1586
▁However	-1587
▁future	-1588
▁City	-1589
▁far	-1590
▁pie	-1591
▁doing	-1592
arr	-1593
ched	-1594
lished	-1595
▁major	-1596
▁commun	-1597
ained	-1598
▁Gr	-1599
▁space	-1600
▁control	-1601
ource	-1602
▁wa	-1603
ball	-1604
ges	-1605
fact	-1606
urity	-1607
▁store	-1608
▁cover	-1609
▁Ab	-1610
anies	-1611
▁low	-1612
lement	-1613
▁occ	-1614
acy	-1615
▁Dr	-1616
▁Not	-1617
ference	-1618
ford	-1619
▁means	-1620
AR	-1621
▁games	-1622
lege	-1623
▁mind	-1624
▁yet	-1625
▁came	-1626
▁offers	-1627
▁blog	-1628
▁chall	-1629
oll	-1630
▁percent	-1631
▁took	-1632
▁five	-1633
▁doesn	-1634
▁Min	-1635
▁invol	-1636
▁lim	-1637
▁comb	-1638
sel	-1639
▁*	-1640
▁fore	-1641
▁least	-1642
ilities	-1643
▁strong	-1644
▁State	-1645
▁features	-1646
▁price	-1647
ches	-1648
▁God	-1649
▁customers	-1650
▁step	-1651
▁Ke	-1652
▁More	-1653
▁heart	-1654
▁specific	-1655
urther	-1656
most	-1657
▁once	-1658
▁main	-1659
▁pict	-1660
▁range	-1661
▁School	-1662
ilt	-1663
▁key	-1664
▁require	-1665
pos	-1666
sw	-1667
▁close	-1668
ither	-1669
▁Now	-1670
▁upd	-1671
▁mean	-1672
▁ey	-1673
▁government	-1674
▁stay	-1675
▁early	-1676
▁Bo	-1677
yl	-1678
af	-1679
▁series	-1680
▁tool	-1681
▁discuss	-1682
▁tem	-1683
▁Bro	-1684
illed	-1685
▁hig	-1686
ources	-1687
▁priv	-1688
▁charact	-1689
▁ste	-1690
▁Jan	-1691
▁walk	-1692
▁Im	-1693
▁Ed	-1694
▁went	-1695
atural	-1696
▁United	-1697
▁announ	-1698
atic	-1699
▁technology	-1700
▁install	-1701
▁typ	-1702
▁ago	-1703
▁told	-1704
▁beautiful	-1705
pro	-1706
▁Pe	-1707
//	-1708
aken	-1709
ging	-1710
▁thought	-1711
▁hope	-1712
▁redu	-1713
▁pick	-1714
It	-1715
▁appear	-1716
▁happen	-1717
▁begin	-1718
ancial	-1719
resh	-1720
org	-1721
resent	-1722
▁anal	-1723
▁By	-1724
rew	-1725
▁break	-1726
isk	-1727
anks	-1728
irm	-1729
ille	-1730
itor	-1731
▁questions	-1732
▁Pre	-1733
come	-1734
▁wind	-1735
▁Em	-1736
▁Qu	-1737
ourn	-1738
▁x	-1739
▁prep	-1740
▁certain	-1741
▁--	-1742
://	-1743
▁Add	-1744
▁everything	-1745
OR	-1746
hers	-1747
▁content	-1748
ians	-1749
ony	-1750
▁travel	-1751
▁sn	-1752
▁favor	-1753
▁field	-1754
▁companies	-1755
isc	-1756
▁Cal	-1757
gle	-1758
▁added	-1759
▁single	-1760
▁known	-1761
irt	-1762
▁recom	-1763
▁Park	-1764
▁media	-1765
aps	-1766
▁building	-1767
▁friend	-1768
▁actually	-1769
▁enc	-1770
arning	-1771
▁environment	-1772
de	-1773
aur	-1774
▁manag	-1775
▁search	-1776
ief	-1777
eral	-1778
play	-1779
▁tax	-1780
▁ener	-1781
raft	-1782
▁tot	-1783
▁problem	-1784
▁vol	-1785
▁press	-1786
▁address	-1787
▁mess	-1788
▁study	-1789
▁later	-1790
cle	-1791
▁York	-1792
▁girl	-1793
▁Sm	-1794
ests	-1795
▁works	-1796
ino	-1797
ibr	-1798
▁connect	-1799
▁improve	-1800
ew	-1801
▁sound	-1802
gest	-1803
▁taking	-1804
icy	-1805
ster	-1806
ided	-1807
ural	-1808
▁South	-1809
▁Su	-1810
lebr	-1811
year	-1812
▁pub	-1813
▁maint	-1814
▁watch	-1815
abor	-1816
▁ident	-1817
▁training	-1818
▁North	-1819
▁film	-1820
▁track	-1821
▁Mc	-1822
back	-1823
▁staff	-1824
ental	-1825
▁card	-1826
ensive	-1827
wh	-1828
▁wond	-1829
nes	-1830
ocu	-1831
ama	-1832
▁Just	-1833
▁results	-1834
▁professional	-1835
atest	-1836
▁someone	-1837
ES	-1838
▁issues	-1839
▁Gl	-1840
▁seen	-1841
▁half	-1842
▁official	-1843
▁While	-1844
▁Euro	-1845
▁front	-1846
▁econom	-1847
▁host	-1848
▁provides	-1849
▁face	-1850
▁unique	-1851
▁Per	-1852
fully	-1853
▁near	-1854
▁web	-1855
opy	-1856
urch	-1857
▁National	-1858
▁miss	-1859
▁particular	-1860
AL	-1861
▁County	-1862
▁cook	-1863
▁Acc	-1864
▁Some	-1865
▁sell	-1866
▁relations	-1867
▁everyone	-1868
▁due	-1869
▁port	-1870
▁dig	-1871
rain	-1872
▁Center	-1873
▁Aust	-1874
▁recommend	-1875
▁Don	-1876
▁cred	-1877
ctor	-1878
▁respons	-1879
▁z	-1880
▁office	-1881
ued	-1882
▁Inc	-1883
hod	-1884
go	-1885
▁simple	-1886
▁Part	-1887
cer	-1888
lex	-1889
▁click	-1890
▁Oct	-1891
▁aud	-1892
▁age	-1893
▁ant	-1894
ibility	-1895
▁whole	-1896
itted	-1897
time	-1898
roll	-1899
▁management	-1900
not	-1901
▁particip	-1902
pecially	-1903
▁mot	-1904
▁mor	-1905
▁Apr	-1906
▁oil	-1907
iod	-1908
▁Pres	-1909
▁ess	-1910
asing	-1911
obile	-1912
▁Pol	-1913
▁fall	-1914
▁areas	-1915
▁bar	-1916
▁performance	-1917
pper	-1918
▁author	-1919
▁World	-1920
▁given	-1921
place	-1922
ply	-1923
imate	-1924
icult	-1925
▁Dep	-1926
nding	-1927
▁above	-1928
▁bed	-1929
umb	-1930
ites	-1931
ators	-1932
▁eff	-1933
▁reason	-1934
In	-1935
aining	-1936
▁Will	-1937
▁among	-1938
▁events	-1939
ops	-1940
ables	-1941
▁history	-1942
▁Stud	-1943
▁experienc	-1944
ask	-1945
▁protect	-1946
EN	-1947
▁Post	-1948
▁energy	-1949
▁Sec	-1950
▁believe	-1951
▁select	-1952
omes	-1953
▁assist	-1954
▁black	-1955
▁htt	-1956
ison	-1957
ogn	-1958
▁foot	-1959
▁Reg	-1960
▁print	-1961
▁details	-1962
▁amount	-1963
ety	-1964
ili	-1965
ED	-1966
▁six	-1967
▁size	-1968
obal	-1969
▁further	-1970
ledge	-1971
▁sex	-1972
▁From	-1973
crib	-1974
▁High	-1975
▁prob	-1976
idence	-1977
▁Friday	-1978
▁log	-1979
ulation	-1980
▁pain	-1981
▁points	-1982
▁designed	-1983
▁includes	-1984
▁color	-1985
▁Aug	-1986
astic	-1987
vert	-1988
▁cult	-1989
▁red	-1990
oved	-1991
ands	-1992
▁mag	-1993
▁property	-1994
▁parent	-1995
ufact	-1996
▁Day	-1997
▁soon	-1998
▁continue	-1999
AS	-2000
▁et	-2001
▁coming	-2002
▁Mr	-2003
ruction	-2004
▁anything	-2005
▁Europe	-2006
▁feature	-2007
▁text	-2008
ung	-2009
▁various	-2010
▁question	-2011
▁value	-2012
▁latest	-2013
nov	-2014
itch	-2015
urance	-2016
▁phys	-2017
ze	-2018
▁Bar	-2019
rodu	-2020
▁March	-2021
itional	-2022
▁living	-2023
▁popular	-2024
▁according	-2025
my	-2026
▁fre	-2027
aily	-2028
▁forward	-2029
▁phone	-2030
uation	-2031
▁pret	-2032
▁Ge	-2033
▁type	-2034
aturday	-2035
ouch	-2036
▁whether	-2037
IT	-2038
cript	-2039
ole	-2040
▁consider	-2041
edd	-2042
itc	-2043
▁entire	-2044
▁idea	-2045
IC	-2046
though	-2047
▁claim	-2048
▁weeks	-2049
▁Sept	-2050
▁white	-2051
▁brand	-2052
▁June	-2053
▁celebr	-2054
▁dou	-2055
▁deb	-2056
▁El	-2057
aching	-2058
▁diff	-2059
▁Bu	-2060
▁needed	-2061
▁par	-2062
▁opportunity	-2063
elt	-2064
▁Sund	-2065
▁taken	-2066
▁consum	-2067
▁comput	-2068
itter	-2069
selves	-2070
new	-2071
▁docu	-2072
▁potential	-2073
▁wide	-2074
▁third	-2075
▁receive	-2076
▁safe	-2077
▁date	-2078
▁bad	-2079
▁required	-2080
ffe	-2081
▁Us	-2082
amer	-2083
This	-2084
ises	-2085
▁ready	-2086
▁inj	-2087
▁West	-2088
▁Off	-2089
AC	-2090
ilar	-2091
head	-2092
▁April	-2093
▁sent	-2094
▁relationship	-2095
▁sugg	-2096
▁ensure	-2097
▁almost	-2098
ival	-2099
▁currently	-2100
▁,	-2101
▁example	-2102
▁kids	-2103
▁pretty	-2104
▁financial	-2105
▁meas	-2106
▁common	-2107
ees	-2108
▁comfort	-2109
▁extra	-2110
val	-2111
▁skin	-2112
ires	-2113
▁quite	-2114
▁ach	-2115
▁fire	-2116
▁Tra	-2117
▁period	-2118
▁human	-2119
▁Art	-2120
▁Read	-2121
▁ways	-2122
▁trying	-2123
▁final	-2124
▁especially	-2125
▁yourself	-2126
▁Jo	-2127
▁road	-2128
▁park	-2129
▁Cor	-2130
▁natural	-2131
irc	-2132
▁sho	-2133
▁veh	-2134
ek	-2135
▁options	-2136
uary	-2137
▁paper	-2138
▁His	-2139
▁Health	-2140
▁items	-2141
▁style	-2142
▁coll	-2143
▁box	-2144
ring	-2145
▁answ	-2146
....	-2147
ese	-2148
used	-2149
▁either	-2150
▁member	-2151
▁Saturday	-2152
onday	-2153
▁provided	-2154
ana	-2155
ively	-2156
itting	-2157
▁hon	-2158
▁swe	-2159
▁happy	-2160
▁engine	-2161
▁crit	-2162
▁summer	-2163
▁choose	-2164
▁held	-2165
▁throughout	-2166
▁via	-2167
▁wanted	-2168
▁fit	-2169
▁self	-2170
▁attend	-2171
▁recent	-2172
▁dam	-2173
▁clients	-2174
▁flow	-2175
ada	-2176
▁download	-2177
ication	-2178
▁July	-2179
▁Fin	-2180
aced	-2181
arter	-2182
▁impact	-2183
▁Aut	-2184
▁users	-2185
▁Pa	-2186
▁Af	-2187
▁previous	-2188
▁tit	-2189
▁created	-2190
▁issue	-2191
azing	-2192
▁takes	-2193
▁Dav	-2194
▁behind	-2195
▁recently	-2196
▁TH	-2197
ler	-2198
▁version	-2199
gress	-2200
icro	-2201
▁sales	-2202
▁couple	-2203
▁seem	-2204
oogle	-2205
angu	-2206
ux	-2207
▁init	-2208
▁super	-2209
▁song	-2210
▁software	-2211
▁running	-2212
ried	-2213
cast	-2214
▁education	-2215
ams	-2216
IS	-2217
▁bott	-2218
▁Get	-2219
verage	-2220
▁isn	-2221
▁clear	-2222
▁collect	-2223
ume	-2224
▁hol	-2225
apt	-2226
▁network	-2227
ox	-2228
ades	-2229
▁received	-2230
▁Feb	-2231
▁role	-2232
▁insp	-2233
▁problems	-2234
▁represent	-2235
oura	-2236
▁reading	-2237
oid	-2238
▁method	-2239
▁table	-2240
eth	-2241
▁Val	-2242
uge	-2243
itten	-2244
anced	-2245
▁players	-2246
cy	-2247
▁Direct	-2248
earch	-2249
▁shows	-2250
▁likely	-2251
where	-2252
▁di	-2253
▁po	-2254
▁Int	-2255
atform	-2256
▁Sw	-2257
▁favorite	-2258
▁signific	-2259
▁increase	-2260
▁nice	-2261
▁States	-2262
▁regular	-2263
▁else	-2264
▁accom	-2265
▁pan	-2266
▁security	-2267
ification	-2268
par	-2269
▁stri	-2270
reme	-2271
▁difficult	-2272
▁Mon	-2273
oud	-2274
St	-2275
▁action	-2276
idge	-2277
▁dog	-2278
▁party	-2279
▁lo	-2280
OU	-2281
▁Sunday	-2282
▁Face	-2283
▁ele	-2284
▁Monday	-2285
▁fast	-2286
▁simply	-2287
▁customer	-2288
▁skills	-2289
▁fresh	-2290
▁article	-2291
▁cool	-2292
▁sle	-2293
▁probably	-2294
▁writing	-2295
▁outside	-2296
▁position	-2297
▁cup	-2298
overed	-2299
bor	-2300
▁original	-2301
icles	-2302
arth	-2303
▁Her	-2304
aving	-2305
mit	-2306
▁asked	-2307
▁Up	-2308
.)	-2309
aging	-2310
▁necess	-2311
▁morning	-2312
--	-2313
▁House	-2314
▁wonder	-2315
li	-2316
ID	-2317
▁inside	-2318
aby	-2319
▁model	-2320
istration	-2321
▁goal	-2322
▁manufact	-2323
ham	-2324
▁President	-2325
▁leave	-2326
ounc	-2327
▁ground	-2328
▁systems	-2329
icated	-2330
eter	-2331
uit	-2332
▁anim	-2333
▁ful	-2334
▁application	-2335
▁Associ	-2336
▁learning	-2337
▁Black	-2338
▁Act	-2339
aker	-2340
▁UK	-2341
▁tour	-2342
▁risk	-2343
▁release	-2344
▁Bus	-2345
based	-2346
▁lives	-2347
▁projects	-2348
▁knowledge	-2349
▁stop	-2350
▁contrib	-2351
▁located	-2352
▁changes	-2353
▁Are	-2354
▁however	-2355
▁polit	-2356
medi	-2357
▁mix	-2358
face	-2359
▁exist	-2360
▁board	-2361
▁medical	-2362
right	-2363
▁Mich	-2364
▁additional	-2365
name	-2366
▁Red	-2367
▁recogn	-2368
▁stra	-2369
▁hit	-2370
▁Soc	-2371
▁career	-2372
▁abs	-2373
▁Free	-2374
▁anyone	-2375
▁sat	-2376
▁etc	-2377
lus	-2378
▁private	-2379
adem	-2380
ague	-2381
iple	-2382
▁Austral	-2383
▁activities	-2384
▁treatment	-2385
▁total	-2386
▁fail	-2387
▁TV	-2388
amed	-2389
▁town	-2390
artment	-2391
▁cal	-2392
▁America	-2393
▁former	-2394
▁September	-2395
▁base	-2396
▁accept	-2397
aign	-2398
▁ple	-2399
▁matter	-2400
hel	-2401
hib	-2402
▁mark	-2403
▁contract	-2404
arget	-2405
▁included	-2406
ession	-2407
ming	-2408
▁saf	-2409
ules	-2410
OT	-2411
▁Of	-2412
ecut	-2413
iol	-2414
▁mach	-2415
▁words	-2416
▁meeting	-2417
▁Sal	-2418
▁growth	-2419
izing	-2420
wood	-2421
▁hair	-2422
▁autom	-2423
▁playing	-2424
▁books	-2425
ipment	-2426
ovember	-2427
▁significant	-2428
▁leaders	-2429
▁October	-2430
▁Ser	-2431
oring	-2432
▁match	-2433
empt	-2434
mon	-2435
▁ball	-2436
▁worth	-2437
ny	-2438
ky	-2439
irth	-2440
▁longer	-2441
▁News	-2442
▁drive	-2443
▁character	-2444
▁looks	-2445
▁round	-2446
rug	-2447
ester	-2448
▁variety	-2449
▁Wed	-2450
ground	-2451
▁production	-2452
▁hy	-2453
▁practice	-2454
▁concern	-2455
rict	-2456
▁squ	-2457
▁January	-2458
▁August	-2459
▁First	-2460
reg	-2461
kend	-2462
cing	-2463
ursday	-2464
▁defin	-2465
ude	-2466
▁tal	-2467
▁Every	-2468
▁late	-2469
▁sun	-2470
▁lay	-2471
▁wall	-2472
▁exam	-2473
airs	-2474
▁San	-2475
mercial	-2476
▁suggest	-2477
ha	-2478
che	-2479
adu	-2480
▁Har	-2481
na	-2482
▁function	-2483
pm	-2484
▁worked	-2485
uesday	-2486
iff	-2487
▁determ	-2488
elcome	-2489
ville	-2490
▁fig	-2491
▁Let	-2492
▁Ag	-2493
▁death	-2494
ipe	-2495
iddle	-2496
▁programs	-2497
▁associ	-2498
▁cand	-2499
rect	-2500
▁international	-2501
▁Google	-2502
▁platform	-2503
▁Facebook	-2504
▁screen	-2505
▁nothing	-2506
▁deg	-2507
imum	-2508
▁Then	-2509
erc	-2510
arden	-2511
Wh	-2512
▁Dis	-2513
▁plans	-2514
▁clos	-2515
oom	-2516
▁true	-2517
ipping	-2518
oke	-2519
▁rather	-2520
▁purchase	-2521
▁general	-2522
▁leading	-2523
▁Ac	-2524
▁amazing	-2525
▁credit	-2526
▁police	-2527
▁Department	-2528
▁estab	-2529
▁loss	-2530
▁Net	-2531
olution	-2532
▁stat	-2533
▁chance	-2534
▁seems	-2535
▁subject	-2536
▁regard	-2537
ouncil	-2538
▁arri	-2539
eds	-2540
itchen	-2541
▁allows	-2542
▁similar	-2543
▁built	-2544
▁Sim	-2545
▁challeng	-2546
▁Mus	-2547
▁rate	-2548
▁national	-2549
▁Pat	-2550
▁usually	-2551
▁student	-2552
▁quickly	-2553
▁November	-2554
▁Also	-2555
▁photos	-2556
▁infl	-2557
▁Street	-2558
▁draw	-2559
▁teac	-2560
ashing	-2561
▁comment	-2562
off	-2563
cember	-2564
AM	-2565
ought	-2566
nesday	-2567
▁International	-2568
▁touch	-2569
▁higher	-2570
▁tast	-2571
light	-2572
oph	-2573
str	-2574
▁providing	-2575
▁Air	-2576
iber	-2577
▁deep	-2578
iter	-2579
▁excell	-2580
▁safety	-2581
▁image	-2582
▁choice	-2583
▁apply	-2584
gar	-2585
ING	-2586
mas	-2587
▁Group	-2588
▁respect	-2589
▁hands	-2590
now	-2591
▁Out	-2592
▁moment	-2593
▁prior	-2594
▁movie	-2595
▁collection	-2596
urg	-2597
ondon	-2598
▁Cons	-2599
example	-2600
▁ideas	-2601
▁decision	-2602
▁marketing	-2603
▁bud	-2604
▁sil	-2605
▁Cour	-2606
hern	-2607
lin	-2608
▁bal	-2609
▁encoura	-2610
▁inde	-2611
▁easily	-2612
▁integr	-2613
▁location	-2614
▁decided	-2615
▁ut	-2616
▁Thursday	-2617
▁Wind	-2618
▁rad	-2619
▁court	-2620
▁commit	-2621
▁af	-2622
▁cell	-2623
▁dom	-2624
▁op	-2625
▁released	-2626
▁Tuesday	-2627
ournal	-2628
ached	-2629
▁mass	-2630
▁prevent	-2631
put	-2632
▁ill	-2633
▁Home	-2634
▁reported	-2635
▁digital	-2636
▁Well	-2637
▁benefits	-2638
▁Calif	-2639
amb	-2640
▁La	-2641
▁introdu	-2642
eal	-2643
▁exact	-2644
▁wood	-2645
ivery	-2646
reng	-2647
▁Most	-2648
ma	-2649
▁file	-2650
▁attack	-2651
▁agree	-2652
▁campaign	-2653
▁display	-2654
▁ord	-2655
▁lost	-2656
ishing	-2657
▁announced	-2658
idents	-2659
▁cannot	-2660
sp	-2661
▁Business	-2662
▁daily	-2663
▁parents	-2664
▁partners	-2665
▁cause	-2666
hood	-2667
▁involved	-2668
▁drink	-2669
rown	-2670
▁sche	-2671
▁sens	-2672
ructure	-2673
▁December	-2674
▁Ang	-2675
ray	-2676
unities	-2677
▁center	-2678
ples	-2679
▁neg	-2680
▁Any	-2681
▁effic	-2682
▁expected	-2683
ederal	-2684
ospital	-2685
▁piece	-2686
▁saw	-2687
▁club	-2688
▁dest	-2689
▁vict	-2690
▁investig	-2691
OM	-2692
▁Wednesday	-2693
atory	-2694
▁user	-2695
▁weekend	-2696
▁tick	-2697
▁ep	-2698
▁affect	-2699
▁ability	-2700
ci	-2701
▁rout	-2702
▁ri	-2703
▁related	-2704
▁London	-2705
avy	-2706
▁bra	-2707
▁Click	-2708
▁save	-2709
▁norm	-2710
ilies	-2711
▁send	-2712
▁modern	-2713
ET	-2714
illing	-2715
▁Design	-2716
▁standard	-2717
▁patients	-2718
▁langu	-2719
▁circ	-2720
▁green	-2721
▁mobile	-2722
▁woman	-2723
EO	-2724
▁boy	-2725
ruary	-2726
▁iP	-2727
▁restaur	-2728
just	-2729
▁aw	-2730
▁Prof	-2731
▁Check	-2732
▁immedi	-2733
▁expert	-2734
▁fight	-2735
▁option	-2736
▁floor	-2737
▁goes	-2738
▁PM	-2739
▁computer	-2740
▁pers	-2741
▁enter	-2742
▁ded	-2743
▁global	-2744
lim	-2745
key	-2746
▁bag	-2747
▁Over	-2748
▁mother	-2749
▁target	-2750
like	-2751
istic	-2752
▁emer	-2753
board	-2754
▁serious	-2755
▁War	-2756
aves	-2757
uel	-2758
▁http	-2759
oday	-2760
▁huge	-2761
asons	-2762
▁costs	-2763
▁Rec	-2764
▁parts	-2765
enge	-2766
▁helps	-2767
▁stock	-2768
ivity	-2769
iring	-2770
▁College	-2771
▁sym	-2772
▁myself	-2773
▁surpr	-2774
zz	-2775
▁gen	-2776
ett	-2777
▁English	-2778
▁roll	-2779
▁weight	-2780
erve	-2781
ellow	-2782
▁Cr	-2783
▁code	-2784
uk	-2785
▁innov	-2786
▁Sen	-2787
▁legal	-2788
▁gives	-2789
▁earn	-2790
▁rights	-2791
ornia	-2792
▁Par	-2793
▁ones	-2794
▁gra	-2795
edding	-2796
band	-2797
▁Ob	-2798
▁Afric	-2799
▁tools	-2800
▁Del	-2801
▁solutions	-2802
▁bank	-2803
ault	-2804
▁request	-2805
▁warm	-2806
▁equipment	-2807
▁arch	-2808
▁Other	-2809
▁giving	-2810
cription	-2811
ram	-2812
▁dress	-2813
▁insurance	-2814
▁Brit	-2815
▁attention	-2816
▁feed	-2817
▁admin	-2818
pri	-2819
unt	-2820
▁played	-2821
attle	-2822
▁conditions	-2823
▁approach	-2824
▁levels	-2825
▁Techn	-2826
▁Hol	-2827
▁Book	-2828
▁sus	-2829
▁sett	-2830
▁Play	-2831
EC	-2832
▁resources	-2833
▁door	-2834
iction	-2835
ara	-2836
atives	-2837
acing	-2838
▁note	-2839
ension	-2840
▁trust	-2841
▁prim	-2842
ica	-2843
▁capt	-2844
▁qual	-2845
▁deliver	-2846
aged	-2847
▁interested	-2848
OS	-2849
▁planning	-2850
▁remember	-2851
▁award	-2852
iding	-2853
hold	-2854
▁Service	-2855
aught	-2856
▁sold	-2857
erous	-2858
▁policy	-2859
pose	-2860
▁gets	-2861
▁Trans	-2862
akers	-2863
▁starting	-2864
partment	-2865
ysis	-2866
▁solution	-2867
▁object	-2868
▁businesses	-2869
▁hear	-2870
▁write	-2871
▁highly	-2872
▁lab	-2873
▁cases	-2874
▁instead	-2875
▁Law	-2876
▁subs	-2877
▁opp	-2878
▁February	-2879
▁lower	-2880
apan	-2881
▁vac	-2882
▁themselves	-2883
▁upon	-2884
vey	-2885
▁president	-2886
▁source	-2887
▁express	-2888
ening	-2889
▁published	-2890
▁California	-2891
www	-2892
▁sense	-2893
irit	-2894
▁sale	-2895
▁fine	-2896
▁streng	-2897
▁photo	-2898
▁reach	-2899
ashion	-2900
▁plant	-2901
▁organization	-2902
urt	-2903
▁dry	-2904
ibrary	-2905
▁condition	-2906
orge	-2907
EL	-2908
▁Gener	-2909
▁materials	-2910
▁written	-2911
▁mid	-2912
AP	-2913
mission	-2914
▁firm	-2915
rup	-2916
▁types	-2917
▁interview	-2918
▁countries	-2919
▁effective	-2920
urb	-2921
izes	-2922
▁AM	-2923
add	-2924
▁Christmas	-2925
▁average	-2926
▁consult	-2927
bum	-2928
ael	-2929
▁Je	-2930
ule	-2931
▁Services	-2932
▁dise	-2933
▁Met	-2934
▁multiple	-2935
▁cat	-2936
▁Loc	-2937
▁positive	-2938
ida	-2939
▁Great	-2940
▁Rem	-2941
▁slow	-2942
mm	-2943
▁imm	-2944
enty	-2945
▁lif	-2946
wide	-2947
ato	-2948
▁Go	-2949
▁began	-2950
▁join	-2951
▁interesting	-2952
iles	-2953
▁images	-2954
▁Spe	-2955
▁describ	-2956
aches	-2957
arant	-2958
▁trip	-2959
ength	-2960
▁camer	-2961
▁seek	-2962
▁viol	-2963
ube	-2964
▁prem	-2965
▁Mod	-2966
▁answer	-2967
▁India	-2968
▁healthy	-2969
▁heat	-2970
▁opportunities	-2971
▁dream	-2972
rom	-2973
▁Sch	-2974
ography	-2975
▁Why	-2976
urer	-2977
ration	-2978
▁message	-2979
▁player	-2980
▁Thanks	-2981
ald	-2982
rought	-2983
▁document	-2984
ager	-2985
▁employees	-2986
▁Cle	-2987
elling	-2988
▁fans	-2989
▁picture	-2990
▁hour	-2991
▁sites	-2992
▁lic	-2993
▁David	-2994
press	-2995
▁Sub	-2996
▁stories	-2997
▁According	-2998
▁tele	-2999
sy	-3000
▁directly	-3001
▁necessary	-3002
▁Phot	-3003
▁completely	-3004
bit	-3005
▁item	-3006
▁achieve	-3007
▁Year	-3008
▁Hot	-3009
duc	-3010
IL	-3011
▁copy	-3012
▁families	-3013
itute	-3014
▁King	-3015
▁gift	-3016
▁groups	-3017
rel	-3018
▁essential	-3019
▁commercial	-3020
▁div	-3021
gu	-3022
▁Even	-3023
olf	-3024
ocol	-3025
▁Once	-3026
▁Program	-3027
▁pull	-3028
▁band	-3029
arlier	-3030
▁Av	-3031
orage	-3032
▁offe	-3033
▁Mag	-3034
▁Since	-3035
▁reve	-3036
▁rock	-3037
ares	-3038
▁www	-3039
▁Market	-3040
▁hor	-3041
itely	-3042
▁Whe	-3043
▁East	-3044
▁prices	-3045
▁promot	-3046
▁Found	-3047
▁fully	-3048
▁goals	-3049
▁eye	-3050
▁excellent	-3051
▁fix	-3052
▁led	-3053
▁itself	-3054
▁Many	-3055
itation	-3056
▁stru	-3057
▁growing	-3058
▁successful	-3059
▁paint	-3060
oul	-3061
iant	-3062
▁creating	-3063
▁cert	-3064
▁except	-3065
▁White	-3066
▁comments	-3067
▁Green	-3068
▁adult	-3069
coming	-3070
erved	-3071
▁fab	-3072
▁aim	-3073
▁Good	-3074
▁gar	-3075
▁neigh	-3076
onse	-3077
▁separ	-3078
▁stuff	-3079
ffee	-3080
▁traditional	-3081
▁gold	-3082
ancy	-3083
▁Germ	-3084
ooth	-3085
▁Work	-3086
▁drug	-3087
▁birth	-3088
▁broad	-3089
▁Spr	-3090
▁cross	-3091
▁fair	-3092
BC	-3093
tee	-3094
▁wasn	-3095
▁Last	-3096
uses	-3097
▁Best	-3098
▁Russ	-3099
▁cy	-3100
▁reports	-3101
iable	-3102
▁dark	-3103
wor	-3104
▁device	-3105
▁extreme	-3106
▁wrong	-3107
mb	-3108
▁saying	-3109
udd	-3110
▁mount	-3111
omen	-3112
▁Jack	-3113
▁teams	-3114
urning	-3115
▁attempt	-3116
▁terms	-3117
anch	-3118
▁shoot	-3119
▁glass	-3120
▁hop	-3121
▁block	-3122
▁vehicle	-3123
▁kitchen	-3124
ey	-3125
▁dead	-3126
▁China	-3127
▁applications	-3128
▁baby	-3129
ores	-3130
▁Tex	-3131
venue	-3132
hest	-3133
imately	-3134
▁Each	-3135
▁rev	-3136
ties	-3137
▁Web	-3138
▁Japan	-3139
▁Twitter	-3140
▁See	-3141
▁blood	-3142
ecutive	-3143
▁thinking	-3144
▁Port	-3145
uth	-3146
inner	-3147
inary	-3148
▁mention	-3149
ashington	-3150
▁gave	-3151
aughter	-3152
ipped	-3153
pite	-3154
▁depend	-3155
▁Develop	-3156
▁wait	-3157
rote	-3158
”.	-3159
TM	-3160
iced	-3161
▁bi	-3162
▁System	-3163
▁budget	-3164
▁organiz	-3165
OL	-3166
▁obs	-3167
▁aware	-3168
▁director	-3169
aries	-3170
▁speed	-3171
▁farm	-3172
▁spend	-3173
▁implement	-3174
▁attract	-3175
▁serve	-3176
istry	-3177
▁Hall	-3178
▁section	-3179
unk	-3180
▁sen	-3181
▁became	-3182
▁smart	-3183
overn	-3184
▁impress	-3185
▁Mor	-3186
▁Office	-3187
▁Association	-3188
▁profession	-3189
▁offering	-3190
raz	-3191
▁Bel	-3192
▁college	-3193
▁pictures	-3194
Ch	-3195
▁distrib	-3196
▁wish	-3197
ological	-3198
▁places	-3199
▁son	-3200
▁correct	-3201
▁effort	-3202
▁Mem	-3203
▁nation	-3204
field	-3205
rows	-3206
▁Make	-3207
▁advice	-3208
ils	-3209
▁Pri	-3210
AD	-3211
▁conduct	-3212
▁Sol	-3213
▁carry	-3214
▁limited	-3215
▁developed	-3216
▁dro	-3217
▁coun	-3218
yond	-3219
▁spent	-3220
▁suit	-3221
▁IN	-3222
ications	-3223
pre	-3224
▁avoid	-3225
▁vot	-3226
▁title	-3227
vest	-3228
▁rent	-3229
▁moving	-3230
▁Road	-3231
▁individuals	-3232
▁progress	-3233
▁situation	-3234
▁complex	-3235
▁Vis	-3236
▁Sk	-3237
▁Paul	-3238
▁defe	-3239
▁bath	-3240
▁Today	-3241
▁Canada	-3242
rench	-3243
▁Educ	-3244
▁Washington	-3245
▁delivery	-3246
▁Inter	-3247
▁Down	-3248
riend	-3249
ibly	-3250
idered	-3251
ceed	-3252
▁enh	-3253
▁About	-3254
▁Public	-3255
▁statement	-3256
▁wants	-3257
▁requirements	-3258
▁album	-3259
▁ble	-3260
▁schools	-3261
haps	-3262
▁Use	-3263
▁eat	-3264
word	-3265
▁war	-3266
▁jud	-3267
▁heard	-3268
▁advant	-3269
▁construction	-3270
▁feet	-3271
house	-3272
down	-3273
▁convers	-3274
US	-3275
▁cas	-3276
▁sometimes	-3277
▁Gold	-3278
▁physical	-3279
useum	-3280
▁quarter	-3281
▁sleep	-3282
▁race	-3283
▁sweet	-3284
ocr	-3285
▁shot	-3286
▁nut	-3287
▁felt	-3288
ancing	-3289
▁stress	-3290
▁Find	-3291
▁Director	-3292
▁AN	-3293
▁emb	-3294
fl	-3295
▁billion	-3296
▁stage	-3297
▁shop	-3298
▁hotel	-3299
▁Indian	-3300
▁Top	-3301
▁Open	-3302
▁Dem	-3303
▁towards	-3304
▁hous	-3305
▁spot	-3306
▁feeling	-3307
▁Lear	-3308
itary	-3309
▁loved	-3310
▁annual	-3311
▁consist	-3312
▁ing	-3313
porate	-3314
▁wonderful	-3315
▁owners	-3316
▁path	-3317
▁Flor	-3318
▁region	-3319
▁finally	-3320
unte	-3321
▁THE	-3322
reci	-3323
ari	-3324
▁finish	-3325
▁strateg	-3326
PS	-3327
▁brought	-3328
▁Pal	-3329
▁mat	-3330
▁Mac	-3331
▁lik	-3332
▁eyes	-3333
ctions	-3334
ports	-3335
isions	-3336
▁ten	-3337
▁ver	-3338
▁pet	-3339
▁language	-3340
▁Texas	-3341
ocks	-3342
▁Council	-3343
▁pattern	-3344
▁Club	-3345
▁straight	-3346
▁aff	-3347
▁respond	-3348
end	-3349
▁Care	-3350
▁partner	-3351
▁nearly	-3352
▁inform	-3353
▁interact	-3354
▁nature	-3355
owl	-3356
rast	-3357
▁star	-3358
▁sports	-3359
▁wife	-3360
dule	-3361
▁exerc	-3362
▁Dan	-3363
▁investment	-3364
oming	-3365
ION	-3366
▁Bre	-3367
▁helping	-3368
▁ult	-3369
▁tried	-3370
▁overall	-3371
▁pow	-3372
▁Class	-3373
▁categ	-3374
▁Hel	-3375
▁concept	-3376
▁weather	-3377
▁Sur	-3378
▁Board	-3379
▁blue	-3380
▁temper	-3381
▁guide	-3382
".	-3383
▁William	-3384
▁max	-3385
▁collabor	-3386
ened	-3387
▁Apple	-3388
▁Court	-3389
▁independ	-3390
▁largest	-3391
▁charge	-3392
roid	-3393
▁client	-3394
▁Time	-3395
▁repl	-3396
▁demand	-3397
▁Ir	-3398
▁Oh	-3399
estival	-3400
▁definitely	-3401
As	-3402
▁wear	-3403
ago	-3404
itect	-3405
hips	-3406
inger	-3407
▁wrote	-3408
He	-3409
ourney	-3410
▁gas	-3411
change	-3412
▁Ann	-3413
▁Windows	-3414
ament	-3415
▁load	-3416
▁Tom	-3417
mitted	-3418
▁ge	-3419
▁benefit	-3420
▁advert	-3421
rences	-3422
▁seven	-3423
▁turned	-3424
asc	-3425
▁pred	-3426
▁candid	-3427
▁activity	-3428
▁offered	-3429
rig	-3430
arc	-3431
▁response	-3432
▁double	-3433
aly	-3434
▁acqu	-3435
roud	-3436
▁ahead	-3437
▁appoint	-3438
▁Internet	-3439
▁influ	-3440
▁Ant	-3441
ned	-3442
▁cold	-3443
last	-3444
wise	-3445
▁miles	-3446
▁internet	-3447
ounds	-3448
▁Review	-3449
▁pieces	-3450
▁wedding	-3451
uted	-3452
▁altern	-3453
▁earlier	-3454
▁Australia	-3455
▁uses	-3456
▁Fam	-3457
▁imag	-3458
▁exactly	-3459
▁beginning	-3460
▁appreci	-3461
▁grand	-3462
▁bottom	-3463
▁Research	-3464
▁Michael	-3465
yd	-3466
ails	-3467
▁histor	-3468
▁reduce	-3469
▁thous	-3470
▁homes	-3471
▁difference	-3472
▁considered	-3473
▁James	-3474
▁belie	-3475
▁View	-3476
▁prec	-3477
▁Adv	-3478
▁political	-3479
▁served	-3480
▁transport	-3481
▁doll	-3482
bon	-3483
ying	-3484
icks	-3485
▁devices	-3486
▁entertain	-3487
▁active	-3488
net	-3489
ustain	-3490
▁challenge	-3491
▁paid	-3492
▁IT	-3493
olute	-3494
OV	-3495
▁Thank	-3496
▁cho	-3497
ampions	-3498
▁Govern	-3499
▁creative	-3500
more	-3501
▁Ty	-3502
ategy	-3503
box	-3504
▁finished	-3505
▁supply	-3506
▁surround	-3507
You	-3508
▁regul	-3509
cause	-3510
▁Rel	-3511
estern	-3512
icate	-3513
▁Look	-3514
▁Have	-3515
▁cash	-3516
▁Rich	-3517
▁retail	-3518
ston	-3519
▁understanding	-3520
▁Big	-3521
▁Char	-3522
▁eight	-3523
▁European	-3524
▁replace	-3525
▁hus	-3526
▁states	-3527
mod	-3528
orrow	-3529
umn	-3530
:||	-3531
▁Micro	-3532
icip	-3533
Re	-3534
▁lots	-3535
LE	-3536
▁Mark	-3537
dd	-3538
▁Life	-3539
▁easier	-3540
▁culture	-3541
▁Super	-3542
oly	-3543
▁maybe	-3544
▁rates	-3545
oves	-3546
antly	-3547
▁afford	-3548
▁pages	-3549
▁economic	-3550
▁experienced	-3551
sec	-3552
▁outd	-3553
▁Call	-3554
▁ST	-3555
▁Cur	-3556
ales	-3557
▁flav	-3558
vin	-3559
▁guarant	-3560
▁truly	-3561
▁analysis	-3562
▁father	-3563
▁Sl	-3564
▁pressure	-3565
raw	-3566
hens	-3567
error	-3568
inated	-3569
▁expand	-3570
▁machine	-3571
icious	-3572
bl	-3573
rial	-3574
▁named	-3575
▁reflect	-3576
▁thank	-3577
▁emot	-3578
ses	-3579
▁immediately	-3580
▁fat	-3581
▁Company	-3582
▁girls	-3583
▁Angel	-3584
▁tom	-3585
het	-3586
▁assess	-3587
amic	-3588
sych	-3589
▁exhib	-3590
▁Det	-3591
▁demon	-3592
pa	-3593
IP	-3594
▁gradu	-3595
▁IS	-3596
dom	-3597
▁prot	-3598
aled	-3599
▁contain	-3600
set	-3601
▁numbers	-3602
▁posted	-3603
▁videos	-3604
▁comfortable	-3605
▁wild	-3606
▁degree	-3607
▁garden	-3608
erry	-3609
rey	-3610
▁tips	-3611
▁Child	-3612
▁Bay	-3613
▁Ev	-3614
nown	-3615
▁obt	-3616
▁prop	-3617
▁satis	-3618
iny	-3619
care	-3620
ivil	-3621
anging	-3622
▁opening	-3623
▁helped	-3624
▁speak	-3625
▁remain	-3626
▁Management	-3627
▁pool	-3628
▁launch	-3629
▁behav	-3630
▁damage	-3631
▁trade	-3632
rem	-3633
undred	-3634
▁Bank	-3635
▁Plan	-3636
chan	-3637
▁storage	-3638
▁threat	-3639
▁Island	-3640
▁PC	-3641
▁lack	-3642
▁Ret	-3643
▁subst	-3644
phone	-3645
ronic	-3646
▁II	-3647
▁Mart	-3648
▁beyond	-3649
▁Sun	-3650
order	-3651
orial	-3652
▁Sing	-3653
▁purpose	-3654
▁completed	-3655
asy	-3656
alt	-3657
If	-3658
amm	-3659
▁knew	-3660
▁spread	-3661
force	-3662
ico	-3663
▁cards	-3664
arily	-3665
▁fashion	-3666
▁disease	-3667
tion	-3668
que	-3669
▁accur	-3670
▁reviews	-3671
▁plus	-3672
▁Contact	-3673
ado	-3674
▁Jes	-3675
▁Ins	-3676
▁cancer	-3677
▁decor	-3678
▁existing	-3679
▁fant	-3680
▁train	-3681
agn	-3682
▁Although	-3683
▁camera	-3684
▁adjust	-3685
▁highest	-3686
▁jobs	-3687
▁coffee	-3688
▁dating	-3689
▁craft	-3690
▁Water	-3691
met	-3692
▁Florida	-3693
cel	-3694
illa	-3695
atever	-3696
OW	-3697
body	-3698
▁Dec	-3699
▁responsible	-3700
▁During	-3701
▁lines	-3702
soft	-3703
▁Rob	-3704
▁Love	-3705
▁middle	-3706
▁furn	-3707
▁excited	-3708
▁proced	-3709
▁himself	-3710
▁allowed	-3711
aling	-3712
▁welcome	-3713
▁increased	-3714
▁conference	-3715
oving	-3716
▁driving	-3717
▁setting	-3718
▁Win	-3719
▁Church	-3720
▁Sum	-3721
iling	-3722
▁increasing	-3723
▁husband	-3724
▁proud	-3725
lied	-3726
▁estate	-3727
▁initial	-3728
ona	-3729
▁certainly	-3730
▁prefer	-3731
▁appropri	-3732
▁frame	-3733
▁strugg	-3734
aith	-3735
▁Republic	-3736
▁sty	-3737
imal	-3738
▁journey	-3739
oe	-3740
▁thanks	-3741
▁Sa	-3742
▁General	-3743
▁er	-3744
▁passion	-3745
▁holiday	-3746
▁fem	-3747
▁Camp	-3748
rapy	-3749
▁effects	-3750
▁	-3751
e	-3752
t	-3753
a	-3754
o	-3755
i	-3756
n	-3757
s	-3758
r	-3759
h	-3760
l	-3761
d	-3762
c	-3763
u	-3764
m	-3765
p	-3766
g	-3767
f	-3768
y	-3769
w	-3770
b	-3771
.	-3772
v	-3773
,	-3774
k	-3775
T	-3776
S	-3777
I	-3778
A	-3779
-	-3780
C	-3781
0	-3782
M	-3783
1	-3784
P	-3785
x	-3786
B	-3787
2	-3788
W	-3789
D	-3790
R	-3791
E	-3792
H	-3793
F	-3794
’	-3795
L	-3796
N	-3797
O	-3798
:	-3799
'	-3800
G	-3801
j	-3802
)	-3803
(	-3804
z	-3805
3	-3806
5	-3807
q	-3808
U	-3809
4	-3810
"	-3811
9	-3812
J	-3813
8	-3814
6	-3815
V	-3816
Y	-3817
K	-3818
|	-3819
7	-3820
!	-3821
/	-3822
“	-3823
”	-3824
?	-3825
–	-3826
;	-3827
&	-3828
$	-3829
Q	-3830
%	-3831
—	-3832
X	-3833
Z	-3834
*	-3835
